<pad>	0
<s>	0
</s>	0
<unk>	0
<null>	0
in	-0
▁s	-1
er	-2
▁c	-3
▁t	-4
an	-5
▁b	-6
▁p	-7
on	-8
re	-9
or	-10
ar	-11
▁f	-12
le	-13
at	-14
▁m	-15
▁w	-16
al	-17
en	-18
▁d	-19
es	-20
it	-21
▁a	-22
ing	-23
he	-24
ro	-25
▁g	-26
ic	-27
▁h	-28
▁l	-29
▁o	-30
st	-31
ac	-32
ed	-33
and	-34
▁-	-35
▁in	-36
as	-37
ou	-38
▁the	-39
ot	-40
ol	-41
et	-42
il	-43
▁st	-44
▁n	-45
el	-46
is	-47
ra	-48
om	-49
ion	-50
ig	-51
▁of	-52
▁v	-53
ag	-54
am	-55
id	-56
▁2	-57
▁1	-58
▁e	-59
ir	-60
▁re	-61
un	-62
ow	-63
▁and	-64
ch	-65
ad	-66
im	-67
▁k	-68
ur	-69
ec	-70
▁for	-71
▁j	-72
ack	-73
ent	-74
oo	-75
ut	-76
▁ch	-77
us	-78
▁to	-79
▁r	-80
ers	-81
ay	-82
▁(	-83
all	-84
oc	-85
art	-86
um	-87
ith	-88
▁bl	-89
iv	-90
▁on	-91
ul	-92
ab	-93
▁sh	-94
▁ro	-95
ter	-96
ap	-97
▁with	-98
▁20	-99
ip	-100
age	-101
▁ph	-102
ew	-103
▁y	-104
ss	-105
oto	-106
igh	-107
ard	-108
▁by	-109
▁le	-110
ation	-111
ov	-112
em	-113
ock	-114
ak	-115
int	-116
qu	-117
00	-118
▁photo	-119
▁th	-120
th	-121
est	-122
se	-123
▁3	-124
if	-125
up	-126
ill	-127
ct	-128
ant	-129
ist	-130
▁sp	-131
▁fl	-132
▁201	-133
▁wh	-134
▁at	-135
ine	-136
ight	-137
▁be	-138
ure	-139
op	-140
▁pl	-141
ce	-142
ge	-143
ide	-144
og	-145
ite	-146
our	-147
▁im	-148
ect	-149
""	-150
▁cl	-151
ate	-152
sh	-153
ort	-154
av	-155
ia	-156
▁col	-157
▁pr	-158
od	-159
▁he	-160
ree	-161
▁an	-162
ie	-163
ph	-164
▁pro	-165
ry	-166
ook	-167
ast	-168
ood	-169
ale	-170
ust	-171
▁con	-172
▁stock	-173
ign	-174
▁4	-175
ies	-176
ess	-177
▁&	-178
oun	-179
ue	-180
▁de	-181
▁se	-182
ver	-183
ass	-184
▁black	-185
und	-186
▁br	-187
▁co	-188
ain	-189
ath	-190
▁bo	-191
ell	-192
..	-193
able	-194
one	-195
▁new	-196
ace	-197
▁com	-198
▁sc	-199
ick	-200
▁5	-201
▁is	-202
old	-203
pl	-204
▁gre	-205
▁or	-206
▁te	-207
ity	-208
os	-209
ive	-210
ress	-211
▁des	-212
▁tr	-213
ub	-214
ore	-215
ian	-216
iz	-217
ark	-218
ug	-219
irt	-220
ud	-221
▁|	-222
▁#	-223
ber	-224
▁white	-225
▁image	-226
ff	-227
20	-228
end	-229
ire	-230
ond	-231
les	-232
ice	-233
▁wor	-234
ach	-235
▁al	-236
▁car	-237
are	-238
rom	-239
▁ex	-240
ey	-241
ial	-242
ish	-243
▁x	-244
air	-245
ld	-246
▁set	-247
ik	-248
▁free	-249
ash	-250
▁ra	-251
▁design	-252
ly	-253
ty	-254
ome	-255
▁fr	-256
ck	-257
▁un	-258
ton	-259
ib	-260
▁ar	-261
▁po	-262
ear	-263
ment	-264
▁print	-265
▁6	-266
▁ap	-267
ee	-268
▁ad	-269
▁art	-270
ding	-271
▁back	-272
▁wom	-273
▁en	-274
▁qu	-275
mer	-276
ase	-277
ans	-278
ple	-279
ector	-280
▁tra	-281
over	-282
▁19	-283
ail	-284
ower	-285
per	-286
ens	-287
ater	-288
ong	-289
▁sw	-290
io	-291
ake	-292
▁pre	-293
▁from	-294
▁di	-295
man	-296
ft	-297
raph	-298
ouse	-299
▁gl	-300
ind	-301
ang	-302
▁blue	-303
own	-304
▁i	-305
▁mar	-306
ings	-307
lect	-308
▁can	-309
▁z	-310
▁"	-311
▁vector	-312
▁sk	-313
ram	-314
ile	-315
iew	-316
row	-317
▁dec	-318
oor	-319
ult	-320
amp	-321
▁red	-322
▁us	-323
ink	-324
▁sm	-325
▁7	-326
te	-327
act	-328
ve	-329
▁gold	-330
▁8	-331
▁kit	-332
ric	-333
▁card	-334
▁man	-335
land	-336
ary	-337
▁color	-338
▁/	-339
▁light	-340
atch	-341
aw	-342
▁jo	-343
ather	-344
tern	-345
ition	-346
ord	-347
10	-348
▁ac	-349
bo	-350
▁it	-351
▁bu	-352
▁out	-353
▁home	-354
ated	-355
▁gr	-356
ren	-357
▁dress	-358
▁10	-359
▁you	-360
▁ser	-361
edding	-362
▁cre	-363
rist	-364
50	-365
▁ed	-366
▁9	-367
let	-368
ount	-369
az	-370
ict	-371
com	-372
shirt	-373
▁sil	-374
pt	-375
▁men	-376
▁wall	-377
room	-378
▁me	-379
...	-380
▁sup	-381
▁sale	-382
▁as	-383
▁ab	-384
▁ste	-385
▁hand	-386
oth	-387
▁women	-388
ery	-389
ont	-390
▁up	-391
▁top	-392
▁pat	-393
▁min	-394
ank	-395
▁mod	-396
▁che	-397
▁res	-398
▁bag	-399
▁cover	-400
▁pa	-401
▁bed	-402
▁roy	-403
ern	-404
ah	-405
round	-406
▁gu	-407
-1	-408
▁am	-409
▁book	-410
▁green	-411
out	-412
▁we	-413
▁sl	-414
▁ind	-415
▁so	-416
▁part	-417
ps	-418
ory	-419
ool	-420
ll	-421
ull	-422
ame	-423
ier	-424
ob	-425
▁off	-426
▁wedding	-427
ade	-428
lee	-429
▁dr	-430
▁royal	-431
orn	-432
ax	-433
ild	-434
ix	-435
▁ide	-436
▁post	-437
▁christ	-438
cl	-439
ove	-440
▁your	-441
ical	-442
▁pol	-443
eck	-444
ous	-445
▁best	-446
▁high	-447
less	-448
▁dis	-449
ets	-450
▁bar	-451
itt	-452
co	-453
graph	-454
▁""	-455
urn	-456
book	-457
ages	-458
vel	-459
▁tw	-460
ork	-461
day	-462
▁day	-463
att	-464
▁ne	-465
▁wood	-466
ich	-467
▁pe	-468
ium	-469
uct	-470
ustr	-471
▁all	-472
▁per	-473
ance	-474
▁str	-475
▁table	-476
ons	-477
▁ip	-478
ike	-479
▁house	-480
▁fo	-481
als	-482
▁her	-483
ise	-484
ground	-485
nt	-486
irl	-487
▁em	-488
af	-489
▁12	-490
pe	-491
▁ideas	-492
ne	-493
br	-494
port	-495
bl	-496
ble	-497
for	-498
anc	-499
▁sun	-500
au	-501
▁photograph	-502
iss	-503
mas	-504
▁cr	-505
▁water	-506
▁comp	-507
▁she	-508
ift	-509
line	-510
ott	-511
ley	-512
ual	-513
▁log	-514
▁slee	-515
ins	-516
▁gra	-517
▁u	-518
▁cont	-519
▁my	-520
▁background	-521
arm	-522
▁decor	-523
▁200	-524
▁aut	-525
▁0	-526
▁mon	-527
▁leather	-528
ush	-529
▁case	-530
▁eng	-531
arr	-532
que	-533
uit	-534
▁work	-535
▁how	-536
▁met	-537
▁rec	-538
yle	-539
▁'	-540
ina	-541
▁fe	-542
▁but	-543
▁royalty	-544
ime	-545
▁cro	-546
iel	-547
▁af	-548
ys	-549
aper	-550
ions	-551
▁play	-552
ors	-553
▁kn	-554
▁are	-555
12	-556
▁air	-557
chen	-558
inter	-559
▁christmas	-560
▁cap	-561
▁tem	-562
aut	-563
▁long	-564
▁med	-565
ids	-566
▁dra	-567
intage	-568
▁view	-569
ange	-570
ote	-571
ball	-572
rown	-573
▁one	-574
hed	-575
ave	-576
▁bab	-577
oes	-578
ok	-579
▁18	-580
▁sy	-581
icture	-582
▁down	-583
▁bus	-584
▁world	-585
reen	-586
lo	-587
▁cent	-588
▁this	-589
▁jack	-590
▁mag	-591
view	-592
ics	-593
▁silver	-594
ner	-595
ask	-596
▁vintage	-597
▁—	-598
▁girl	-599
oon	-600
uck	-601
▁–	-602
▁bir	-603
▁cam	-604
▁collect	-605
ost	-606
▁box	-607
▁kitchen	-608
ize	-609
ates	-610
▁sn	-611
▁picture	-612
ational	-613
uc	-614
▁star	-615
mm	-616
to	-617
▁:	-618
fl	-619
hn	-620
▁cut	-621
umb	-622
▁la	-623
▁sch	-624
▁swe	-625
▁ag	-626
30	-627
▁ic	-628
ping	-629
sc	-630
▁el	-631
▁baby	-632
▁logo	-633
▁city	-634
pg	-635
str	-636
▁love	-637
▁paint	-638
ence	-639
len	-640
▁neck	-641
cess	-642
▁shirt	-643
▁ill	-644
iness	-645
▁mus	-646
▁pack	-647
ife	-648
▁par	-649
▁pink	-650
ert	-651
ound	-652
▁hot	-653
alk	-654
me	-655
ations	-656
uring	-657
sp	-658
19	-659
ese	-660
led	-661
▁cal	-662
▁nat	-663
▁stud	-664
ior	-665
▁head	-666
ning	-667
▁over	-668
of	-669
▁ev	-670
▁hol	-671
▁class	-672
60	-673
000	-674
hone	-675
ats	-676
▁watch	-677
els	-678
ellow	-679
ai	-680
▁port	-681
▁images	-682
▁stre	-683
▁no	-684
11	-685
▁sign	-686
pro	-687
ents	-688
▁glass	-689
▁bre	-690
▁room	-691
▁[	-692
▁ant	-693
▁park	-694
▁will	-695
▁business	-696
xt	-697
▁ring	-698
een	-699
ume	-700
▁sol	-701
▁super	-702
▁game	-703
▁inter	-704
40	-705
▁foot	-706
py	-707
yl	-708
▁cle	-709
▁short	-710
ger	-711
der	-712
▁sou	-713
▁dog	-714
ating	-715
▁vide	-716
▁act	-717
▁fram	-718
▁char	-719
▁bro	-720
▁nor	-721
▁bedroom	-722
enn	-723
▁brown	-724
▁john	-725
▁fin	-726
80	-727
▁iphone	-728
▁beach	-729
meric	-730
▁pattern	-731
▁power	-732
▁screen	-733
ining	-734
ily	-735
▁gift	-736
▁sleeve	-737
ere	-738
ece	-739
▁year	-740
▁ball	-741
ds	-742
▁kids	-743
▁americ	-744
▁av	-745
▁diam	-746
▁collection	-747
▁war	-748
▁vol	-749
▁op	-750
ivers	-751
▁style	-752
iver	-753
▁yellow	-754
▁lar	-755
duct	-756
ashion	-757
ique	-758
▁mini	-759
tt	-760
ux	-761
▁mark	-762
▁photos	-763
erson	-764
▁illustr	-765
jpg	-766
▁leg	-767
▁beaut	-768
▁heart	-769
▁del	-770
▁14	-771
▁stick	-772
15	-773
▁sport	-774
ury	-775
ants	-776
ital	-777
▁series	-778
▁templ	-779
▁mount	-780
▁fir	-781
ots	-782
▁size	-783
ustom	-784
▁ret	-785
iving	-786
▁party	-787
▁15	-788
ane	-789
▁small	-790
the	-791
▁wind	-792
ural	-793
▁hair	-794
ape	-795
▁sec	-796
13	-797
de	-798
ung	-799
-2	-800
▁cas	-801
gan	-802
▁video	-803
▁mot	-804
ful	-805
way	-806
14	-807
▁mov	-808
▁diamond	-809
▁fashion	-810
ams	-811
eting	-812
▁ge	-813
ugh	-814
▁who	-815
16	-816
uff	-817
red	-818
▁custom	-819
▁photography	-820
▁flor	-821
▁pur	-822
.5	-823
▁fam	-824
▁sing	-825
▁that	-826
ator	-827
▁2013	-828
ny	-829
ited	-830
▁chair	-831
▁sur	-832
18	-833
▁cat	-834
▁pan	-835
ield	-836
▁elect	-837
▁2019	-838
▁har	-839
era	-840
ron	-841
eth	-842
▁ele	-843
▁during	-844
▁night	-845
▁sum	-846
▁make	-847
▁cur	-848
▁cart	-849
yc	-850
ling	-851
▁sim	-852
▁inv	-853
▁full	-854
▁pet	-855
25	-856
▁tre	-857
▁old	-858
▁gard	-859
▁two	-860
aster	-861
load	-862
▁lo	-863
iff	-864
▁$	-865
raft	-866
▁fun	-867
▁cab	-868
avy	-869
by	-870
▁pres	-871
▁16	-872
▁100	-873
ri	-874
▁grey	-875
▁edition	-876
▁led	-877
▁online	-878
▁big	-879
▁show	-880
ster	-881
▁steel	-882
▁sal	-883
▁ann	-884
▁front	-885
▁mult	-886
▁bath	-887
ipe	-888
ney	-889
idge	-890
col	-891
▁30	-892
70	-893
▁his	-894
▁comm	-895
▁jacket	-896
▁fre	-897
son	-898
▁2018	-899
▁modern	-900
ips	-901
▁earr	-902
▁first	-903
▁illustration	-904
enc	-905
ames	-906
▁neckl	-907
ould	-908
▁ve	-909
▁school	-910
▁poster	-911
▁shoes	-912
▁fil	-913
uk	-914
▁rock	-915
ray	-916
▁mer	-917
▁ce	-918
door	-919
gh	-920
▁stand	-921
▁gen	-922
▁trans	-923
rap	-924
▁dou	-925
otton	-926
ma	-927
che	-928
its	-929
▁fire	-930
▁gro	-931
ative	-932
▁ass	-933
ason	-934
▁det	-935
ible	-936
▁plan	-937
ari	-938
▁round	-939
ement	-940
▁key	-941
ett	-942
▁squ	-943
▁bra	-944
be	-945
▁arm	-946
ards	-947
gl	-948
▁2012	-949
▁necklace	-950
▁aw	-951
▁map	-952
▁bel	-953
▁york	-954
▁furn	-955
ony	-956
▁dig	-957
oll	-958
▁go	-959
▁life	-960
▁road	-961
▁2014	-962
vas	-963
▁cotton	-964
iday	-965
bs	-966
ized	-967
▁flower	-968
ino	-969
▁rem	-970
▁do	-971
▁25	-972
▁+	-973
ring	-974
▁tree	-975
▁child	-976
▁floor	-977
ature	-978
▁tour	-979
▁tur	-980
▁shop	-981
▁dark	-982
▁large	-983
under	-984
▁coff	-985
▁review	-986
ump	-987
▁ir	-988
▁metal	-989
iture	-990
▁hap	-991
▁draw	-992
▁2017	-993
17	-994
▁north	-995
▁lad	-996
▁cor	-997
roid	-998
▁earrings	-999
▁download	-1000
lic	-1001
ose	-1002
▁land	-1003
▁south	-1004
▁tro	-1005
ml	-1006
▁canvas	-1007
▁sand	-1008
▁serv	-1009
▁run	-1010
▁stor	-1011
▁door	-1012
itch	-1013
▁garden	-1014
▁after	-1015
▁not	-1016
owers	-1017
ler	-1018
board	-1019
set	-1020
▁more	-1021
▁ma	-1022
▁woman	-1023
inal	-1024
ody	-1025
▁pop	-1026
▁mem	-1027
▁product	-1028
▁pi	-1029
▁person	-1030
ann	-1031
.0	-1032
▁ref	-1033
▁furniture	-1034
▁family	-1035
▁bow	-1036
▁coffee	-1037
▁ter	-1038
▁orig	-1039
ittle	-1040
eek	-1041
ional	-1042
▁hall	-1043
▁paper	-1044
▁cross	-1045
wood	-1046
▁birth	-1047
▁great	-1048
▁sa	-1049
ana	-1050
top	-1051
▁mach	-1052
▁spe	-1053
▁text	-1054
▁ey	-1055
ones	-1056
▁mid	-1057
pack	-1058
▁look	-1059
▁ship	-1060
▁50	-1061
▁real	-1062
▁outdoor	-1063
▁king	-1064
ular	-1065
▁gall	-1066
▁template	-1067
ille	-1068
▁je	-1069
▁rose	-1070
▁time	-1071
back	-1072
pr	-1073
get	-1074
▁cou	-1075
▁winter	-1076
iful	-1077
▁food	-1078
▁may	-1079
▁11	-1080
form	-1081
press	-1082
▁cup	-1083
▁whe	-1084
▁pill	-1085
▁icon	-1086
ines	-1087
nam	-1088
▁ben	-1089
▁buy	-1090
▁about	-1091
gy	-1092
ts	-1093
▁reg	-1094
▁mic	-1095
ident	-1096
▁summer	-1097
oy	-1098
alth	-1099
▁hood	-1100
▁24	-1101
▁jew	-1102
tr	-1103
work	-1104
▁bat	-1105
▁2016	-1106
ject	-1107
-0	-1108
dition	-1109
▁ever	-1110
▁cards	-1111
play	-1112
▁val	-1113
▁inf	-1114
▁read	-1115
asy	-1116
▁hd	-1117
▁13	-1118
▁...	-1119
ondon	-1120
▁snow	-1121
▁mil	-1122
▁travel	-1123
▁cour	-1124
▁beautiful	-1125
agram	-1126
▁hold	-1127
▁street	-1128
▁aud	-1129
▁music	-1130
▁soft	-1131
ember	-1132
▁fit	-1133
akes	-1134
▁gal	-1135
▁little	-1136
▁count	-1137
ww	-1138
▁hat	-1139
pc	-1140
any	-1141
24	-1142
▁prem	-1143
cept	-1144
▁anim	-1145
▁bur	-1146
lex	-1147
99	-1148
ness	-1149
▁american	-1150
▁orange	-1151
▁open	-1152
▁ins	-1153
olog	-1154
▁thumb	-1155
▁face	-1156
uss	-1157
▁adv	-1158
ep	-1159
▁band	-1160
▁london	-1161
▁fore	-1162
▁happy	-1163
▁sat	-1164
▁double	-1165
irc	-1166
▁was	-1167
▁pc	-1168
shot	-1169
▁national	-1170
▁plus	-1171
uro	-1172
▁hom	-1173
▁cook	-1174
▁2015	-1175
ally	-1176
▁es	-1177
ars	-1178
▁birthday	-1179
▁good	-1180
olf	-1181
▁bal	-1182
▁fish	-1183
▁digital	-1184
▁buil	-1185
▁fab	-1186
▁cost	-1187
▁hy	-1188
▁rug	-1189
light	-1190
▁coun	-1191
▁pillow	-1192
▁classic	-1193
▁rent	-1194
▁island	-1195
▁under	-1196
▁west	-1197
▁su	-1198
stem	-1199
▁soc	-1200
▁made	-1201
nail	-1202
▁wash	-1203
▁natural	-1204
▁apple	-1205
▁pal	-1206
▁vis	-1207
▁cry	-1208
▁17	-1209
▁tom	-1210
▁wr	-1211
aker	-1212
▁way	-1213
▁movie	-1214
90	-1215
▁single	-1216
▁win	-1217
▁center	-1218
we	-1219
▁what	-1220
ham	-1221
▁wal	-1222
▁int	-1223
▁fall	-1224
ston	-1225
wh	-1226
▁app	-1227
▁team	-1228
▁tech	-1229
▁ult	-1230
ches	-1231
▁nov	-1232
▁guide	-1233
▁intern	-1234
ific	-1235
▁sky	-1236
photo	-1237
▁personal	-1238
▁oil	-1239
nd	-1240
▁window	-1241
gb	-1242
▁san	-1243
aking	-1244
▁walk	-1245
ng	-1246
▁2020	-1247
▁diy	-1248
cc	-1249
ices	-1250
▁lab	-1251
▁flag	-1252
▁square	-1253
▁bet	-1254
▁week	-1255
▁cabin	-1256
▁into	-1257
35	-1258
▁prot	-1259
▁prof	-1260
▁ang	-1261
▁stain	-1262
▁univers	-1263
▁floral	-1264
▁system	-1265
▁electric	-1266
▁ent	-1267
▁bask	-1268
ama	-1269
▁rel	-1270
ven	-1271
▁pot	-1272
ara	-1273
▁organ	-1274
▁mens	-1275
▁base	-1276
▁hal	-1277
▁ii	-1278
▁ow	-1279
▁gallery	-1280
ied	-1281
▁flat	-1282
▁bas	-1283
▁girls	-1284
▁jun	-1285
▁acc	-1286
ther	-1287
▁max	-1288
▁health	-1289
▁living	-1290
oung	-1291
▁ty	-1292
ople	-1293
22	-1294
▁machine	-1295
▁don	-1296
▁hel	-1297
rench	-1298
▁thumbnail	-1299
artment	-1300
▁trail	-1301
▁grand	-1302
▁coll	-1303
oney	-1304
ient	-1305
▁inst	-1306
▁office	-1307
▁form	-1308
▁cand	-1309
▁flowers	-1310
ograph	-1311
ington	-1312
eep	-1313
▁mountain	-1314
ode	-1315
▁lace	-1316
▁att	-1317
▁side	-1318
▁hard	-1319
▁mug	-1320
75	-1321
agement	-1322
▁let	-1323
▁ext	-1324
▁stra	-1325
-3	-1326
▁screenshot	-1327
▁prin	-1328
▁wooden	-1329
▁button	-1330
▁designs	-1331
▁bathroom	-1332
▁,	-1333
sm	-1334
▁dav	-1335
▁get	-1336
▁spring	-1337
▁den	-1338
▁camp	-1339
▁mac	-1340
▁model	-1341
ouch	-1342
▁mat	-1343
▁again	-1344
ica	-1345
▁navy	-1346
▁bott	-1347
ze	-1348
▁people	-1349
▁cute	-1350
arn	-1351
dy	-1352
▁mo	-1353
▁mich	-1354
▁vs	-1355
▁line	-1356
▁painting	-1357
65	-1358
21	-1359
▁brace	-1360
▁diagram	-1361
▁hor	-1362
▁rep	-1363
▁toy	-1364
▁spec	-1365
▁young	-1366
▁pend	-1367
ival	-1368
▁club	-1369
gon	-1370
▁group	-1371
▁inc	-1372
▁wire	-1373
po	-1374
▁circ	-1375
▁qual	-1376
▁lux	-1377
▁rac	-1378
▁wallp	-1379
▁purple	-1380
lin	-1381
▁cloth	-1382
▁motor	-1383
▁arch	-1384
vers	-1385
esh	-1386
▁emb	-1387
atic	-1388
mon	-1389
rol	-1390
ga	-1391
ms	-1392
▁magn	-1393
▁cryst	-1394
▁bracelet	-1395
ke	-1396
berry	-1397
▁just	-1398
▁tv	-1399
▁basket	-1400
ped	-1401
▁smart	-1402
iam	-1403
▁holiday	-1404
▁easy	-1405
▁cop	-1406
▁mix	-1407
vd	-1408
▁state	-1409
gr	-1410
▁dining	-1411
▁rain	-1412
fa	-1413
▁truck	-1414
▁ca	-1415
▁rad	-1416
arch	-1417
ads	-1418
rop	-1419
ider	-1420
▁van	-1421
black	-1422
▁fabric	-1423
por	-1424
▁ford	-1425
▁suit	-1426
cer	-1427
▁greeting	-1428
▁shipping	-1429
ves	-1430
▁tim	-1431
go	-1432
▁end	-1433
▁jewel	-1434
iring	-1435
ette	-1436
ford	-1437
▁frame	-1438
▁ger	-1439
▁cast	-1440
▁amaz	-1441
▁live	-1442
ives	-1443
astic	-1444
▁saf	-1445
▁du	-1446
obile	-1447
▁lamp	-1448
▁three	-1449
urs	-1450
▁sub	-1451
▁camera	-1452
▁graph	-1453
ious	-1454
▁sam	-1455
-20	-1456
▁dre	-1457
▁roll	-1458
▁access	-1459
▁has	-1460
unch	-1461
house	-1462
other	-1463
▁sea	-1464
▁low	-1465
▁cream	-1466
ures	-1467
▁invit	-1468
▁wild	-1469
elf	-1470
▁uk	-1471
sk	-1472
▁original	-1473
▁usa	-1474
▁cele	-1475
▁stainless	-1476
▁fly	-1477
ville	-1478
na	-1479
iend	-1480
ues	-1481
▁clip	-1482
▁hotel	-1483
▁et	-1484
▁disc	-1485
bur	-1486
ered	-1487
▁river	-1488
dr	-1489
▁brand	-1490
▁ml	-1491
ute	-1492
▁sports	-1493
▁strip	-1494
▁their	-1495
▁season	-1496
▁brid	-1497
oe	-1498
▁butter	-1499
ada	-1500
▁lake	-1501
mp	-1502
▁jul	-1503
ocol	-1504
//	-1505
▁bear	-1506
▁sticker	-1507
▁loc	-1508
▁insp	-1509
my	-1510
▁euro	-1511
▁board	-1512
23	-1513
▁pin	-1514
▁gar	-1515
bon	-1516
▁children	-1517
▁calif	-1518
ution	-1519
▁football	-1520
▁prints	-1521
res	-1522
▁fig	-1523
▁prom	-1524
26	-1525
ycle	-1526
▁have	-1527
▁cool	-1528
▁vill	-1529
cm	-1530
tain	-1531
▁da	-1532
ison	-1533
▁country	-1534
▁friend	-1535
45	-1536
▁french	-1537
▁2011	-1538
▁pendant	-1539
▁price	-1540
▁mir	-1541
▁miss	-1542
arth	-1543
▁body	-1544
▁est	-1545
▁phone	-1546
ral	-1547
▁q	-1548
rough	-1549
ved	-1550
▁def	-1551
▁ess	-1552
▁golden	-1553
▁our	-1554
▁hum	-1555
ube	-1556
gg	-1557
▁inch	-1558
▁should	-1559
▁ban	-1560
28	-1561
ely	-1562
fer	-1563
▁40	-1564
▁ber	-1565
▁clean	-1566
ting	-1567
iger	-1568
▁lin	-1569
▁craft	-1570
▁boy	-1571
▁press	-1572
pa	-1573
umn	-1574
▁china	-1575
▁ps	-1576
▁cake	-1577
▁against	-1578
▁crystal	-1579
▁framed	-1580
▁quality	-1581
ole	-1582
▁right	-1583
pi	-1584
78	-1585
▁hist	-1586
▁vin	-1587
▁gray	-1588
▁lap	-1589
▁building	-1590
▁htt	-1591
ta	-1592
▁farm	-1593
ection	-1594
▁resume	-1595
▁tee	-1596
▁project	-1597
▁hill	-1598
▁champ	-1599
▁celebr	-1600
zz	-1601
uary	-1602
▁bul	-1603
▁dist	-1604
ael	-1605
://	-1606
box	-1607
▁isol	-1608
▁rest	-1609
ety	-1610
ba	-1611
ornia	-1612
▁mad	-1613
apan	-1614
▁news	-1615
▁shower	-1616
ror	-1617
▁care	-1618
▁piece	-1619
ology	-1620
▁perf	-1621
▁chocol	-1622
▁indian	-1623
▁word	-1624
unk	-1625
▁tag	-1626
▁pants	-1627
▁used	-1628
▁1/	-1629
eral	-1630
glass	-1631
▁lim	-1632
ca	-1633
ata	-1634
tery	-1635
cel	-1636
▁jewelry	-1637
95	-1638
▁wiring	-1639
sw	-1640
ida	-1641
▁comple	-1642
▁storage	-1643
27	-1644
▁united	-1645
ka	-1646
▁wa	-1647
▁concept	-1648
oween	-1649
▁california	-1650
▁pear	-1651
▁sweat	-1652
▁interior	-1653
▁bill	-1654
axy	-1655
▁ital	-1656
▁law	-1657
▁apartment	-1658
▁cer	-1659
▁skin	-1660
▁bay	-1661
ini	-1662
▁ep	-1663
▁zip	-1664
▁tea	-1665
▁plans	-1666
▁tote	-1667
▁close	-1668
▁ster	-1669
▁chain	-1670
key	-1671
gin	-1672
▁er	-1673
con	-1674
orial	-1675
▁artist	-1676
▁techn	-1677
ersey	-1678
▁audio	-1679
200	-1680
▁sweet	-1681
▁colors	-1682
med	-1683
▁lov	-1684
lish	-1685
gle	-1686
▁jan	-1687
▁60	-1688
▁isolated	-1689
▁web	-1690
▁.	-1691
▁rub	-1692
▁chic	-1693
33	-1694
▁eye	-1695
ret	-1696
▁list	-1697
▁ob	-1698
▁doll	-1699
stract	-1700
oot	-1701
▁multi	-1702
▁micro	-1703
amb	-1704
▁four	-1705
▁bad	-1706
side	-1707
▁oz	-1708
▁mobile	-1709
▁chocolate	-1710
▁ros	-1711
▁coloring	-1712
"""	-1713
▁galaxy	-1714
▁cartoon	-1715
▁cons	-1716
▁geor	-1717
ship	-1718
ocket	-1719
▁sams	-1720
ocks	-1721
mb	-1722
▁lou	-1723
▁halloween	-1724
▁pass	-1725
anta	-1726
▁retro	-1727
▁backpack	-1728
▁wallpaper	-1729
ota	-1730
▁abstract	-1731
▁rh	-1732
▁japan	-1733
▁offic	-1734
▁quart	-1735
ald	-1736
▁opt	-1737
▁jersey	-1738
▁check	-1739
▁wholes	-1740
▁sets	-1741
▁nike	-1742
▁every	-1743
ience	-1744
ope	-1745
▁east	-1746
▁note	-1747
▁golf	-1748
▁cd	-1749
cd	-1750
ex	-1751
aves	-1752
▁net	-1753
▁mor	-1754
▁suppl	-1755
▁space	-1756
▁sterling	-1757
▁start	-1758
interest	-1759
▁match	-1760
▁david	-1761
▁point	-1762
▁mill	-1763
ories	-1764
ities	-1765
ism	-1766
ments	-1767
▁antique	-1768
▁chev	-1769
▁premium	-1770
▁pad	-1771
-4	-1772
bert	-1773
▁chick	-1774
fore	-1775
▁ear	-1776
▁austr	-1777
▁1.	-1778
free	-1779
▁fair	-1780
▁phil	-1781
▁store	-1782
▁wine	-1783
▁stone	-1784
▁cy	-1785
▁need	-1786
▁fresh	-1787
▁pump	-1788
▁engine	-1789
▁oak	-1790
▁luxury	-1791
proof	-1792
-5	-1793
attle	-1794
▁film	-1795
▁page	-1796
▁"""	-1797
▁letter	-1798
▁ly	-1799
▁equ	-1800
▁rob	-1801
▁footage	-1802
erm	-1803
▁ice	-1804
▁colorful	-1805
▁inn	-1806
▁foto	-1807
▁train	-1808
ief	-1809
▁casual	-1810
▁area	-1811
▁pinterest	-1812
▁international	-1813
▁pictures	-1814
ware	-1815
uction	-1816
▁ebook	-1817
▁books	-1818
▁embroid	-1819
),	-1820
▁court	-1821
ha	-1822
▁past	-1823
dle	-1824
▁near	-1825
▁womens	-1826
▁mouse	-1827
▁special	-1828
64	-1829
ays	-1830
▁samsung	-1831
za	-1832
▁simple	-1833
iting	-1834
▁coat	-1835
ona	-1836
▁li	-1837
!!	-1838
▁michael	-1839
▁wear	-1840
white	-1841
▁clear	-1842
▁oct	-1843
▁works	-1844
▁lot	-1845
iles	-1846
▁hun	-1847
eng	-1848
▁now	-1849
umin	-1850
ris	-1851
▁skirt	-1852
▁vers	-1853
▁pu	-1854
▁vict	-1855
▁test	-1856
akers	-1857
▁ham	-1858
▁desk	-1859
irect	-1860
▁sweater	-1861
▁wholesale	-1862
▁slim	-1863
▁like	-1864
▁fem	-1865
▁mal	-1866
fr	-1867
aur	-1868
ced	-1869
▁display	-1870
▁solid	-1871
▁ol	-1872
1)	-1873
▁silk	-1874
▁medium	-1875
ough	-1876
▁fest	-1877
▁throw	-1878
▁printable	-1879
▁boys	-1880
oop	-1881
urch	-1882
mance	-1883
▁stamp	-1884
▁university	-1885
iling	-1886
▁disney	-1887
▁ladies	-1888
85	-1889
ooth	-1890
▁wheel	-1891
▁rich	-1892
▁appl	-1893
ening	-1894
ublic	-1895
▁lead	-1896
▁boots	-1897
ished	-1898
ril	-1899
▁dem	-1900
dd	-1901
100	-1902
bow	-1903
ender	-1904
ene	-1905
▁load	-1906
▁gi	-1907
▁afric	-1908
ns	-1909
▁fle	-1910
TM	-1911
▁mel	-1912
▁field	-1913
▁@	-1914
▁paul	-1915
▁portra	-1916
met	-1917
▁icons	-1918
▁chin	-1919
▁colour	-1920
▁india	-1921
▁perfect	-1922
ditional	-1923
▁march	-1924
ule	-1925
▁(20	-1926
▁through	-1927
36	-1928
▁blu	-1929
ita	-1930
▁fact	-1931
▁bm	-1932
ces	-1933
stone	-1934
▁moon	-1935
new	-1936
▁22	-1937
her	-1938
▁matt	-1939
ored	-1940
▁clou	-1941
▁paris	-1942
fly	-1943
▁mart	-1944
erry	-1945
▁blog	-1946
▁doc	-1947
▁pool	-1948
off	-1949
▁vari	-1950
▁german	-1951
ban	-1952
▁tit	-1953
▁prog	-1954
▁service	-1955
ilt	-1956
▁animal	-1957
▁costume	-1958
▁dresses	-1959
vin	-1960
use	-1961
made	-1962
hel	-1963
▁president	-1964
▁stat	-1965
▁tank	-1966
▁cred	-1967
alent	-1968
▁bridge	-1969
▁call	-1970
▁speed	-1971
▁autumn	-1972
ico	-1973
▁2010	-1974
kin	-1975
▁los	-1976
▁sunset	-1977
▁story	-1978
glasses	-1979
▁corn	-1980
▁only	-1981
▁town	-1982
▁printed	-1983
▁cra	-1984
▁din	-1985
otes	-1986
▁dan	-1987
nes	-1988
▁bank	-1989
▁conc	-1990
▁drive	-1991
34	-1992
oom	-1993
field	-1994
▁detail	-1995
▁ft	-1996
▁dev	-1997
▁21	-1998
▁control	-1999
pcs	-2000
▁landsc	-2001
itter	-2002
▁tool	-2003
▁left	-2004
oss	-2005
▁most	-2006
▁break	-2007
omet	-2008
▁james	-2009
▁tow	-2010
da	-2011
ago	-2012
▁goo	-2013
▁ornam	-2014
▁use	-2015
amic	-2016
▁second	-2017
▁studio	-2018
▁english	-2019
▁bell	-2020
▁austral	-2021
▁adult	-2022
▁mc	-2023
▁glob	-2024
66	-2025
88	-2026
▁games	-2027
▁las	-2028
▁autom	-2029
▁fac	-2030
▁god	-2031
▁training	-2032
▁wool	-2033
▁perfor	-2034
▁profess	-2035
29	-2036
ym	-2037
▁bud	-2038
onda	-2039
▁iron	-2040
▁song	-2041
▁lights	-2042
read	-2043
ming	-2044
▁shel	-2045
▁direct	-2046
▁sofa	-2047
▁church	-2048
▁pearl	-2049
▁eff	-2050
▁add	-2051
▁mom	-2052
color	-2053
▁commun	-2054
vis	-2055
▁plat	-2056
▁lay	-2057
▁mask	-2058
▁brit	-2059
wis	-2060
val	-2061
▁dep	-2062
la	-2063
ef	-2064
inder	-2065
▁http	-2066
▁dvd	-2067
▁vac	-2068
▁bike	-2069
44	-2070
shop	-2071
▁see	-2072
▁forest	-2073
▁recipe	-2074
▁shorts	-2075
▁america	-2076
attoo	-2077
▁file	-2078
▁aug	-2079
aming	-2080
neck	-2081
umber	-2082
ister	-2083
▁colle	-2084
▁28	-2085
▁europe	-2086
▁laptop	-2087
▁cov	-2088
▁tex	-2089
gra	-2090
▁pick	-2091
▁sen	-2092
cr	-2093
rome	-2094
▁jour	-2095
▁panel	-2096
▁seam	-2097
▁buck	-2098
▁plate	-2099
▁credit	-2100
▁dragon	-2101
▁track	-2102
▁nail	-2103
▁county	-2104
▁jeans	-2105
▁station	-2106
bor	-2107
▁belt	-2108
▁bottle	-2109
▁fro	-2110
▁vi	-2111
▁bags	-2112
bb	-2113
▁clock	-2114
77	-2115
▁proper	-2116
ura	-2117
ipes	-2118
55	-2119
▁alb	-2120
▁activ	-2121
▁stickers	-2122
velop	-2123
▁plastic	-2124
▁bowl	-2125
▁media	-2126
vert	-2127
▁android	-2128
▁portrait	-2129
▁scar	-2130
▁its	-2131
inger	-2132
ky	-2133
▁years	-2134
ential	-2135
39	-2136
den	-2137
▁coast	-2138
▁dead	-2139
ility	-2140
▁found	-2141
▁199	-2142
tor	-2143
▁ipad	-2144
▁arr	-2145
▁rib	-2146
▁hang	-2147
▁diff	-2148
so	-2149
▁bead	-2150
▁support	-2151
ano	-2152
rew	-2153
▁fold	-2154
▁battery	-2155
aux	-2156
head	-2157
▁action	-2158
▁mass	-2159
▁wrap	-2160
▁blank	-2161
▁other	-2162
▁here	-2163
▁repl	-2164
imate	-2165
roll	-2166
df	-2167
/20	-2168
▁russ	-2169
▁touch	-2170
▁chicken	-2171
▁conn	-2172
▁teach	-2173
▁ut	-2174
▁*	-2175
▁ver	-2176
▁market	-2177
ird	-2178
isc	-2179
▁well	-2180
▁fruit	-2181
▁beauty	-2182
iter	-2183
▁lat	-2184
▁running	-2185
▁before	-2186
ired	-2187
▁wide	-2188
▁queen	-2189
▁auto	-2190
▁pages	-2191
▁bright	-2192
▁advent	-2193
▁trip	-2194
▁crew	-2195
▁wars	-2196
▁plant	-2197
▁company	-2198
▁son	-2199
zy	-2200
ige	-2201
▁magic	-2202
angle	-2203
▁baseball	-2204
▁tor	-2205
▁tattoo	-2206
▁april	-2207
▁jum	-2208
▁pocket	-2209
band	-2210
38	-2211
▁washington	-2212
mark	-2213
▁chinese	-2214
▁vinyl	-2215
67	-2216
).	-2217
▁mother	-2218
▁id	-2219
▁terr	-2220
▁ke	-2221
▁shoulder	-2222
▁sunglasses	-2223
▁exp	-2224
▁sweatshirt	-2225
▁lighting	-2226
▁racing	-2227
32	-2228
ude	-2229
omb	-2230
68	-2231
ague	-2232
▁half	-2233
igan	-2234
▁bmw	-2235
▁fan	-2236
▁tips	-2237
▁earth	-2238
▁27	-2239
▁rust	-2240
37	-2241
▁curtain	-2242
▁july	-2243
▁500	-2244
▁mirror	-2245
inch	-2246
▁denim	-2247
▁dam	-2248
▁ur	-2249
▁sound	-2250
cent	-2251
▁aqu	-2252
▁princess	-2253
▁when	-2254
▁poly	-2255
▁cheap	-2256
▁dy	-2257
wear	-2258
▁incl	-2259
utch	-2260
▁traditional	-2261
▁personalized	-2262
just	-2263
▁sem	-2264
▁sne	-2265
▁lady	-2266
▁wel	-2267
▁last	-2268
uter	-2269
▁honda	-2270
ency	-2271
ween	-2272
▁trailer	-2273
▁bird	-2274
itting	-2275
▁complete	-2276
▁dream	-2277
ato	-2278
▁fav	-2279
▁graphic	-2280
ides	-2281
▁history	-2282
▁block	-2283
ja	-2284
▁self	-2285
ibr	-2286
▁sept	-2287
itar	-2288
▁ultra	-2289
▁dry	-2290
▁magnet	-2291
ering	-2292
▁iv	-2293
▁performance	-2294
▁gas	-2295
vet	-2296
▁vir	-2297
sl	-2298
▁tren	-2299
▁mess	-2300
ised	-2301
idas	-2302
oose	-2303
▁decoration	-2304
ges	-2305
anch	-2306
▁june	-2307
ado	-2308
order	-2309
▁core	-2310
ged	-2311
case	-2312
des	-2313
▁windows	-2314
▁engagement	-2315
▁bron	-2316
▁invitation	-2317
uel	-2318
oz	-2319
▁26	-2320
▁know	-2321
▁thom	-2322
▁usb	-2323
itect	-2324
▁between	-2325
chet	-2326
cast	-2327
▁cm	-2328
▁mos	-2329
▁alex	-2330
▁anti	-2331
uf	-2332
acy	-2333
▁por	-2334
bag	-2335
--	-2336
▁cabinet	-2337
car	-2338
ergy	-2339
ola	-2340
▁polo	-2341
▁texas	-2342
▁bou	-2343
▁feature	-2344
▁haw	-2345
png	-2346
.1	-2347
ales	-2348
ii	-2349
▁accessories	-2350
▁magaz	-2351
▁valent	-2352
▁waterproof	-2353
▁funny	-2354
▁charm	-2355
▁place	-2356
▁tile	-2357
▁program	-2358
olution	-2359
reek	-2360
▁bi	-2361
▁hoodie	-2362
▁pow	-2363
▁nature	-2364
▁money	-2365
▁they	-2366
▁main	-2367
▁tut	-2368
▁egg	-2369
▁master	-2370
▁england	-2371
icle	-2372
▁dc	-2373
69	-2374
isex	-2375
▁stripe	-2376
phone	-2377
▁auth	-2378
▁some	-2379
▁rev	-2380
ners	-2381
▁leaf	-2382
▁must	-2383
▁ok	-2384
hol	-2385
piece	-2386
ste	-2387
▁valley	-2388
▁santa	-2389
▁mr	-2390
▁todd	-2391
fit	-2392
▁kh	-2393
▁expl	-2394
▁boot	-2395
▁sav	-2396
▁drawing	-2397
▁ram	-2398
▁seamless	-2399
▁templates	-2400
48	-2401
▁radio	-2402
▁fi	-2403
▁fine	-2404
▁ash	-2405
▁turn	-2406
▁23	-2407
▁adidas	-2408
▁louis	-2409
urity	-2410
▁finish	-2411
▁thank	-2412
▁france	-2413
aces	-2414
▁basketball	-2415
▁develop	-2416
▁landscape	-2417
▁college	-2418
▁©	-2419
▁horse	-2420
▁ange	-2421
▁keep	-2422
▁quotes	-2423
▁event	-2424
▁flash	-2425
ala	-2426
▁wallet	-2427
▁handmade	-2428
▁drink	-2429
▁gh	-2430
▁festival	-2431
▁limited	-2432
▁mont	-2433
itor	-2434
▁holder	-2435
dom	-2436
pet	-2437
/4	-2438
▁creative	-2439
▁surf	-2440
▁patch	-2441
▁pla	-2442
▁deck	-2443
ya	-2444
▁female	-2445
▁franc	-2446
▁80	-2447
▁ze	-2448
▁google	-2449
▁homes	-2450
oves	-2451
ero	-2452
mar	-2453
▁grow	-2454
ella	-2455
▁sheet	-2456
▁property	-2457
▁hands	-2458
▁angeles	-2459
uch	-2460
▁burn	-2461
▁gifts	-2462
▁ple	-2463
aff	-2464
▁rainbow	-2465
ora	-2466
▁magazine	-2467
ental	-2468
▁fur	-2469
ward	-2470
min	-2471
▁architect	-2472
▁swim	-2473
ense	-2474
▁cush	-2475
▁eleg	-2476
▁nut	-2477
▁drop	-2478
▁angel	-2479
▁2.	-2480
▁report	-2481
▁amazon	-2482
▁name	-2483
anger	-2484
▁cell	-2485
▁polar	-2486
▁step	-2487
▁human	-2488
▁ju	-2489
▁fort	-2490
▁tie	-2491
▁oh	-2492
▁wed	-2493
▁unisex	-2494
▁organic	-2495
-6	-2496
▁estate	-2497
▁scott	-2498
▁tenn	-2499
▁professional	-2500
)"	-2501
▁official	-2502
point	-2503
rey	-2504
▁ren	-2505
▁kid	-2506
▁pen	-2507
.,	-2508
ipt	-2509
▁final	-2510
▁anal	-2511
hem	-2512
▁div	-2513
porary	-2514
ging	-2515
▁non	-2516
▁ox	-2517
▁spir	-2518
▁guitar	-2519
▁products	-2520
vent	-2521
▁cable	-2522
▁talk	-2523
▁sold	-2524
▁ba	-2525
▁designer	-2526
▁portable	-2527
ured	-2528
▁rom	-2529
adium	-2530
▁warm	-2531
▁couple	-2532
▁champion	-2533
oma	-2534
▁pull	-2535
ross	-2536
▁if	-2537
cean	-2538
▁knit	-2539
-10	-2540
ipp	-2541
▁sund	-2542
▁carol	-2543
adow	-2544
oice	-2545
▁take	-2546
▁league	-2547
▁alumin	-2548
ien	-2549
fort	-2550
▁tower	-2551
▁cow	-2552
craft	-2553
▁35	-2554
▁(2	-2555
▁mm	-2556
▁deep	-2557
▁gun	-2558
▁differ	-2559
▁crochet	-2560
▁days	-2561
▁florida	-2562
-8	-2563
▁(19	-2564
oke	-2565
▁spl	-2566
▁pair	-2567
ox	-2568
ula	-2569
arent	-2570
itted	-2571
▁hp	-2572
▁resort	-2573
▁butterfly	-2574
▁security	-2575
▁brush	-2576
▁seat	-2577
▁tick	-2578
onder	-2579
▁gear	-2580
▁victor	-2581
maid	-2582
▁build	-2583
▁leaves	-2584
card	-2585
▁dual	-2586
▁emer	-2587
▁social	-2588
▁300	-2589
▁using	-2590
wor	-2591
▁figure	-2592
▁exper	-2593
▁bridal	-2594
▁wireless	-2595
▁vel	-2596
▁rele	-2597
▁pract	-2598
odge	-2599
▁mur	-2600
▁shot	-2601
▁fut	-2602
▁wes	-2603
▁rect	-2604
rid	-2605
▁stret	-2606
▁ha	-2607
print	-2608
▁industr	-2609
▁die	-2610
ries	-2611
▁2009	-2612
▁cert	-2613
▁32	-2614
▁male	-2615
▁mex	-2616
▁pos	-2617
▁august	-2618
▁states	-2619
hou	-2620
▁ven	-2621
ights	-2622
▁essential	-2623
▁ct	-2624
▁smith	-2625
▁energy	-2626
▁player	-2627
▁boat	-2628
▁month	-2629
▁mary	-2630
▁tun	-2631
▁theme	-2632
▁70	-2633
▁sus	-2634
▁36	-2635
ided	-2636
▁educ	-2637
▁friday	-2638
quet	-2639
▁saint	-2640
jo	-2641
bra	-2642
▁fa	-2643
▁easter	-2644
,000	-2645
▁race	-2646
▁veget	-2647
elt	-2648
▁equip	-2649
▁these	-2650
struction	-2651
burg	-2652
▁tags	-2653
-19	-2654
▁eag	-2655
▁avail	-2656
47	-2657
▁cub	-2658
▁emp	-2659
▁contem	-2660
▁mp	-2661
▁clos	-2662
▁heavy	-2663
▁any	-2664
▁album	-2665
▁recipes	-2666
▁~	-2667
do	-2668
▁chicago	-2669
▁safety	-2670
gs	-2671
▁chrome	-2672
ancy	-2673
▁number	-2674
ether	-2675
▁embroidered	-2676
▁stadium	-2677
▁strap	-2678
▁100%	-2679
▁marketing	-2680
iny	-2681
▁management	-2682
▁pant	-2683
▁george	-2684
▁restaur	-2685
ified	-2686
▁dance	-2687
▁viewer	-2688
▁nap	-2689
▁muse	-2690
ander	-2691
itary	-2692
▁rack	-2693
▁az	-2694
▁coc	-2695
▁mas	-2696
▁webs	-2697
▁friends	-2698
pos	-2699
49	-2700
▁link	-2701
▁legend	-2702
▁90	-2703
iding	-2704
▁pup	-2705
cy	-2706
▁tar	-2707
▁rear	-2708
▁things	-2709
▁record	-2710
▁priv	-2711
izer	-2712
▁chart	-2713
▁striped	-2714
du	-2715
▁item	-2716
star	-2717
di	-2718
ched	-2719
▁services	-2720
1.	-2721
▁solar	-2722
ks	-2723
▁29	-2724
iers	-2725
▁mesh	-2726
▁cru	-2727
▁ton	-2728
▁ocean	-2729
▁amazing	-2730
▁elegant	-2731
ager	-2732
▁clothing	-2733
yles	-2734
ising	-2735
▁making	-2736
▁posters	-2737
▁atl	-2738
▁why	-2739
▁1000	-2740
▁painted	-2741
▁click	-2742
▁soccer	-2743
▁fox	-2744
▁barb	-2745
▁sell	-2746
▁chairs	-2747
▁feat	-2748
▁manual	-2749
can	-2750
▁police	-2751
par	-2752
ached	-2753
itz	-2754
▁adjust	-2755
gu	-2756
ference	-2757
▁hous	-2758
cover	-2759
▁present	-2760
allen	-2761
▁range	-2762
▁workshe	-2763
▁bund	-2764
▁version	-2765
▁australia	-2766
uxe	-2767
▁198	-2768
▁covers	-2769
▁bon	-2770
▁oper	-2771
ker	-2772
ving	-2773
▁trib	-2774
▁around	-2775
ester	-2776
▁battle	-2777
men	-2778
▁coach	-2779
cedes	-2780
▁lock	-2781
▁powder	-2782
▁canada	-2783
▁spr	-2784
azz	-2785
fast	-2786
▁dom	-2787
illa	-2788
▁cit	-2789
▁gloves	-2790
▁next	-2791
79	-2792
▁rail	-2793
▁cu	-2794
▁mater	-2795
▁ornament	-2796
▁available	-2797
▁premier	-2798
▁type	-2799
▁comb	-2800
icks	-2801
▁fast	-2802
▁cloud	-2803
▁lt	-2804
rell	-2805
ension	-2806
▁effect	-2807
▁3-	-2808
ographic	-2809
▁pic	-2810
▁suc	-2811
▁castle	-2812
▁hell	-2813
▁bob	-2814
▁aff	-2815
▁cla	-2816
ij	-2817
▁skull	-2818
▁gel	-2819
▁includ	-2820
▁which	-2821
▁where	-2822
▁aer	-2823
▁guard	-2824
▁symb	-2825
▁rustic	-2826
▁tan	-2827
▁today	-2828
▁cin	-2829
▁awards	-2830
www	-2831
▁than	-2832
aki	-2833
▁inspir	-2834
▁force	-2835
▁styl	-2836
sa	-2837
▁scr	-2838
▁contemporary	-2839
▁unit	-2840
▁science	-2841
▁commer	-2842
▁cushion	-2843
ugg	-2844
town	-2845
apers	-2846
▁ultimate	-2847
▁frank	-2848
▁fer	-2849
encil	-2850
▁five	-2851
▁secret	-2852
63	-2853
va	-2854
eter	-2855
▁motorc	-2856
▁mercedes	-2857
iano	-2858
▁yog	-2859
▁xl	-2860
▁2-	-2861
▁jim	-2862
ober	-2863
tail	-2864
▁brass	-2865
lim	-2866
▁shoe	-2867
▁jac	-2868
▁date	-2869
▁own	-2870
▁symbol	-2871
▁conf	-2872
rel	-2873
▁equipment	-2874
▁standard	-2875
uty	-2876
blue	-2877
▁switch	-2878
▁virgin	-2879
▁century	-2880
▁pure	-2881
▁select	-2882
oise	-2883
nal	-2884
▁toys	-2885
▁wonder	-2886
▁2008	-2887
▁looking	-2888
ument	-2889
▁dub	-2890
andel	-2891
▁honey	-2892
▁various	-2893
▁straw	-2894
▁beh	-2895
▁inside	-2896
uine	-2897
▁robert	-2898
ded	-2899
▁gt	-2900
▁bec	-2901
▁glasses	-2902
▁--	-2903
tra	-2904
▁via	-2905
▁ath	-2906
▁fleece	-2907
▁faux	-2908
▁stretch	-2909
▁still	-2910
▁cars	-2911
▁socks	-2912
anda	-2913
▁pra	-2914
bed	-2915
▁october	-2916
▁treat	-2917
▁museum	-2918
-9	-2919
iversary	-2920
▁far	-2921
▁00	-2922
▁decorative	-2923
▁stars	-2924
▁death	-2925
isco	-2926
agon	-2927
▁healthy	-2928
▁trees	-2929
▁ink	-2930
rolet	-2931
▁salad	-2932
▁toddler	-2933
**	-2934
lot	-2935
och	-2936
etooth	-2937
▁central	-2938
▁quest	-2939
▁express	-2940
iation	-2941
uge	-2942
▁military	-2943
▁code	-2944
▁global	-2945
une	-2946
▁ceramic	-2947
cial	-2948
▁therm	-2949
▁save	-2950
▁youth	-2951
▁morn	-2952
▁prim	-2953
amin	-2954
oven	-2955
▁bronze	-2956
▁them	-2957
▁conference	-2958
ists	-2959
▁mi	-2960
nut	-2961
water	-2962
▁level	-2963
▁january	-2964
▁decal	-2965
▁network	-2966
▁less	-2967
▁tul	-2968
▁bun	-2969
▁vest	-2970
▁announ	-2971
72	-2972
▁chevrolet	-2973
▁september	-2974
outh	-2975
▁bean	-2976
▁bum	-2977
▁italy	-2978
ites	-2979
▁find	-2980
▁sample	-2981
▁computer	-2982
ani	-2983
▁data	-2984
▁rubber	-2985
arge	-2986
bour	-2987
▁collar	-2988
▁45	-2989
▁195	-2990
▁scarf	-2991
▁british	-2992
▁website	-2993
▁ready	-2994
▁iss	-2995
▁wre	-2996
▁banner	-2997
▁factory	-2998
▁ta	-2999
with	-3000
▁grade	-3001
ican	-3002
▁six	-3003
down	-3004
▁anniversary	-3005
▁public	-3006
lor	-3007
▁thomas	-3008
▁lens	-3009
▁mint	-3010
▁reading	-3011
lewis	-3012
▁spray	-3013
▁walking	-3014
bre	-3015
▁ny	-3016
elly	-3017
agen	-3018
▁kore	-3019
▁fishing	-3020
▁indoor	-3021
▁genuine	-3022
ugar	-3023
▁tele	-3024
▁holding	-3025
fe	-3026
▁metall	-3027
pical	-3028
74	-3029
▁hav	-3030
▁satin	-3031
eces	-3032
▁der	-3033
▁sex	-3034
▁warr	-3035
▁shopping	-3036
▁william	-3037
▁counter	-3038
▁cheese	-3039
antic	-3040
▁brook	-3041
ared	-3042
▁western	-3043
▁row	-3044
urday	-3045
▁construction	-3046
▁quilt	-3047
▁writing	-3048
▁automatic	-3049
apter	-3050
▁hi	-3051
▁gown	-3052
▁repair	-3053
pad	-3054
▁laure	-3055
▁cherry	-3056
▁www	-3057
▁medical	-3058
▁kill	-3059
▁parts	-3060
▁candy	-3061
log	-3062
▁blood	-3063
▁acry	-3064
▁very	-3065
▁johnlewis	-3066
▁owl	-3067
▁fant	-3068
bruary	-3069
▁surv	-3070
▁condition	-3071
."	-3072
▁palm	-3073
▁sales	-3074
▁patio	-3075
▁hon	-3076
arning	-3077
▁pac	-3078
▁mt	-3079
▁playing	-3080
▁cale	-3081
▁photographer	-3082
▁silhou	-3083
▁clipart	-3084
▁japanese	-3085
▁cott	-3086
wedding	-3087
▁adjustable	-3088
search	-3089
▁bluetooth	-3090
▁evening	-3091
ho	-3092
▁village	-3093
▁result	-3094
▁nick	-3095
▁towel	-3096
ometric	-3097
▁puzz	-3098
▁quick	-3099
▁morning	-3100
.2	-3101
ua	-3102
▁pdf	-3103
▁extra	-3104
▁cabinets	-3105
orm	-3106
▁peter	-3107
▁fight	-3108
▁pale	-3109
▁gener	-3110
shire	-3111
▁want	-3112
▁toyota	-3113
/0	-3114
ko	-3115
▁help	-3116
▁deluxe	-3117
▁restaurant	-3118
▁mah	-3119
▁saturday	-3120
▁marvel	-3121
▁crafts	-3122
▁#1	-3123
▁stop	-3124
▁technology	-3125
▁ms	-3126
▁label	-3127
bu	-3128
clus	-3129
▁army	-3130
iams	-3131
▁cult	-3132
▁sneakers	-3133
ource	-3134
▁grass	-3135
berg	-3136
▁november	-3137
ains	-3138
▁acrylic	-3139
kn	-3140
▁2021	-3141
▁beige	-3142
▁makeup	-3143
▁were	-3144
▁favor	-3145
▁dish	-3146
▁flex	-3147
▁lan	-3148
▁february	-3149
▁bb	-3150
▁shap	-3151
▁motorcycle	-3152
stock	-3153
▁bull	-3154
well	-3155
▁aven	-3156
mond	-3157
▁sunday	-3158
van	-3159
▁ry	-3160
▁dest	-3161
▁nurs	-3162
▁bol	-3163
xl	-3164
▁harry	-3165
▁edge	-3166
▁circle	-3167
aily	-3168
▁volume	-3169
▁bang	-3170
▁return	-3171
▁african	-3172
▁bride	-3173
76	-3174
▁sew	-3175
ios	-3176
▁maj	-3177
▁ray	-3178
kins	-3179
ocus	-3180
▁veh	-3181
▁kar	-3182
▁epis	-3183
▁annual	-3184
▁candle	-3185
▁hooded	-3186
▁gem	-3187
3)	-3188
▁lego	-3189
▁watercolor	-3190
▁pod	-3191
▁rings	-3192
▁oval	-3193
▁tutorial	-3194
▁comfort	-3195
▁gor	-3196
yr	-3197
▁ski	-3198
300	-3199
utter	-3200
▁hanging	-3201
▁audiobook	-3202
▁process	-3203
soft	-3204
▁carry	-3205
▁alph	-3206
▁basic	-3207
▁pay	-3208
▁straight	-3209
annel	-3210
▁hour	-3211
▁ground	-3212
▁featuring	-3213
flower	-3214
sch	-3215
gen	-3216
tube	-3217
▁beer	-3218
▁intro	-3219
▁lav	-3220
▁sens	-3221
▁libr	-3222
ims	-3223
stand	-3224
▁different	-3225
gas	-3226
ision	-3227
▁age	-3228
▁esc	-3229
ronic	-3230
ades	-3231
hi	-3232
▁spider	-3233
▁unique	-3234
yn	-3235
cle	-3236
▁martin	-3237
osp	-3238
▁math	-3239
46	-3240
▁industrial	-3241
gar	-3242
▁pine	-3243
▁spot	-3244
▁laser	-3245
▁aluminum	-3246
▁bic	-3247
31	-3248
ser	-3249
▁slip	-3250
▁clothes	-3251
▁48	-3252
▁cold	-3253
42	-3254
yard	-3255
iled	-3256
acement	-3257
▁sandals	-3258
enz	-3259
▁vegetable	-3260
▁roof	-3261
▁wheels	-3262
▁there	-3263
tle	-3264
▁dot	-3265
▁holly	-3266
▁peace	-3267
ication	-3268
▁visit	-3269
▁lemon	-3270
hd	-3271
▁sau	-3272
▁il	-3273
▁novel	-3274
▁ribbon	-3275
▁trous	-3276
▁gran	-3277
▁buff	-3278
▁pret	-3279
iors	-3280
▁reflect	-3281
▁cock	-3282
▁journal	-3283
▁vacation	-3284
▁crown	-3285
▁semi	-3286
▁shape	-3287
▁weather	-3288
▁early	-3289
▁dinner	-3290
▁civ	-3291
▁villa	-3292
▁think	-3293
iner	-3294
500	-3295
▁shell	-3296
▁nav	-3297
bar	-3298
▁boston	-3299
▁commercial	-3300
▁sugar	-3301
▁snap	-3302
illed	-3303
▁dj	-3304
▁copper	-3305
▁lee	-3306
▁monster	-3307
▁learn	-3308
estone	-3309
▁germany	-3310
ination	-3311
▁mand	-3312
▁general	-3313
▁private	-3314
▁notebook	-3315
▁students	-3316
▁middle	-3317
tte	-3318
iction	-3319
▁leng	-3320
▁youtube	-3321
▁lion	-3322
aging	-3323
▁tiger	-3324
▁shows	-3325
▁host	-3326
▁lang	-3327
▁christian	-3328
▁chris	-3329
▁italian	-3330
▁pep	-3331
▁williams	-3332
▁search	-3333
▁tall	-3334
▁sail	-3335
dra	-3336
overn	-3337
''	-3338
▁fix	-3339
-7	-3340
▁built	-3341
▁150	-3342
▁waist	-3343
ede	-3344
ufact	-3345
ati	-3346
emy	-3347
▁animals	-3348
▁calend	-3349
formation	-3350
▁joe	-3351
▁learning	-3352
▁mond	-3353
▁hen	-3354
▁resp	-3355
▁research	-3356
▁urban	-3357
pers	-3358
▁comic	-3359
▁trim	-3360
▁december	-3361
▁european	-3362
afe	-3363
▁ceiling	-3364
▁length	-3365
▁weight	-3366
slee	-3367
▁blen	-3368
▁fitness	-3369
▁elements	-3370
▁metallic	-3371
gers	-3372
▁cash	-3373
lock	-3374
▁wave	-3375
▁challen	-3376
night	-3377
▁breakfast	-3378
iant	-3379
▁2007	-3380
ogram	-3381
rent	-3382
▁duty	-3383
▁anc	-3384
▁spa	-3385
place	-3386
ways	-3387
▁install	-3388
win	-3389
▁boo	-3390
▁future	-3391
▁roses	-3392
▁2.0	-3393
style	-3394
eds	-3395
▁doors	-3396
▁avenue	-3397
tract	-3398
▁true	-3399
cut	-3400
lands	-3401
▁tropical	-3402
▁hearts	-3403
oman	-3404
low	-3405
▁tot	-3406
▁stack	-3407
reme	-3408
▁assoc	-3409
mi	-3410
▁ru	-3411
front	-3412
vo	-3413
▁tail	-3414
oph	-3415
▁tennis	-3416
▁upd	-3417
bro	-3418
▁spain	-3419
pes	-3420
▁centre	-3421
▁shar	-3422
ken	-3423
▁bench	-3424
▁bee	-3425
....	-3426
fall	-3427
▁danc	-3428
quoise	-3429
▁tablet	-3430
▁ga	-3431
iking	-3432
▁attend	-3433
▁twin	-3434
iser	-3435
▁order	-3436
▁cord	-3437
gth	-3438
▁tap	-3439
▁adventure	-3440
aha	-3441
itive	-3442
rib	-3443
amel	-3444
ased	-3445
▁plaid	-3446
▁hou	-3447
▁eleph	-3448
▁ss	-3449
▁rental	-3450
▁sar	-3451
▁tay	-3452
image	-3453
▁foll	-3454
zen	-3455
62	-3456
▁exter	-3457
▁shoot	-3458
▁while	-3459
chester	-3460
thers	-3461
ization	-3462
▁coup	-3463
▁ped	-3464
▁site	-3465
▁yoga	-3466
▁stool	-3467
43	-3468
icol	-3469
▁pers	-3470
▁profile	-3471
▁quarter	-3472
▁pumpkin	-3473
98	-3474
ci	-3475
▁tire	-3476
fi	-3477
▁kind	-3478
▁episode	-3479
▁cycl	-3480
▁award	-3481
▁rice	-3482
▁africa	-3483
▁student	-3484
▁oly	-3485
▁richard	-3486
no	-3487
▁supply	-3488
▁being	-3489
▁calm	-3490
▁prov	-3491
fri	-3492
time	-3493
▁blanket	-3494
awn	-3495
rick	-3496
▁pig	-3497
▁barn	-3498
▁success	-3499
ction	-3500
ali	-3501
rict	-3502
▁study	-3503
▁change	-3504
acter	-3505
▁mind	-3506
▁silic	-3507
▁sequ	-3508
▁ho	-3509
▁been	-3510
▁deal	-3511
.3	-3512
▁ank	-3513
▁anth	-3514
▁eagle	-3515
▁pencil	-3516
▁120	-3517
▁beads	-3518
▁bloom	-3519
▁cosm	-3520
▁jeep	-3521
▁development	-3522
away	-3523
life	-3524
▁outside	-3525
▁appro	-3526
▁olymp	-3527
▁spark	-3528
▁jpg	-3529
▁bub	-3530
▁valentine	-3531
▁recl	-3532
▁replacement	-3533
▁exam	-3534
▁daily	-3535
mit	-3536
▁marc	-3537
rise	-3538
▁carolina	-3539
▁birds	-3540
▁tape	-3541
body	-3542
ridge	-3543
shirts	-3544
iti	-3545
▁handbag	-3546
▁community	-3547
elle	-3548
▁sleeveless	-3549
▁dol	-3550
esome	-3551
▁better	-3552
▁govern	-3553
▁package	-3554
▁ted	-3555
▁250	-3556
▁put	-3557
joy	-3558
▁library	-3559
▁protect	-3560
▁sin	-3561
amer	-3562
etch	-3563
ansas	-3564
▁focus	-3565
pool	-3566
▁had	-3567
▁py	-3568
▁mixed	-3569
▁dogs	-3570
▁clutch	-3571
▁penn	-3572
▁turquoise	-3573
▁bundle	-3574
▁arts	-3575
▁dun	-3576
▁bouquet	-3577
ills	-3578
▁luc	-3579
ises	-3580
ques	-3581
inals	-3582
▁manufact	-3583
vi	-3584
▁course	-3585
▁gym	-3586
▁quartz	-3587
come	-3588
iana	-3589
▁wrist	-3590
▁)	-3591
▁ther	-3592
owing	-3593
▁bumper	-3594
▁jam	-3595
▁pir	-3596
▁jose	-3597
china	-3598
▁blouse	-3599
▁education	-3600
▁imp	-3601
imal	-3602
▁som	-3603
▁postcard	-3604
ifi	-3605
ians	-3606
▁exclus	-3607
▁invitations	-3608
▁rece	-3609
▁flight	-3610
chan	-3611
iffon	-3612
net	-3613
design	-3614
▁tak	-3615
▁tog	-3616
istic	-3617
▁fund	-3618
ersh	-3619
▁span	-3620
▁cleaning	-3621
▁instr	-3622
▁temple	-3623
mod	-3624
▁texture	-3625
▁reb	-3626
green	-3627
▁lic	-3628
▁va	-3629
ators	-3630
▁maxi	-3631
▁cases	-3632
▁material	-3633
▁shirts	-3634
▁scale	-3635
rd	-3636
izz	-3637
ract	-3638
▁eco	-3639
▁75	-3640
▁bod	-3641
▁never	-3642
fish	-3643
▁cottage	-3644
▁patterns	-3645
▁abs	-3646
▁border	-3647
▁decorating	-3648
▁wolf	-3649
▁exterior	-3650
ji	-3651
▁plated	-3652
▁create	-3653
enger	-3654
▁eps	-3655
▁give	-3656
▁calendar	-3657
▁bamb	-3658
▁spin	-3659
▁chandel	-3660
rest	-3661
/8	-3662
▁carr	-3663
verse	-3664
▁1/2	-3665
anced	-3666
▁artists	-3667
▁carbon	-3668
▁ko	-3669
aks	-3670
▁fol	-3671
▁acad	-3672
▁johnson	-3673
▁contain	-3674
hl	-3675
mc	-3676
▁puzzle	-3677
73	-3678
▁#2	-3679
1-	-3680
▁say	-3681
thing	-3682
▁heat	-3683
▁lane	-3684
alt	-3685
▁location	-3686
uke	-3687
▁working	-3688
то	-3689
▁coin	-3690
main	-3691
▁stage	-3692
▁prince	-3693
▁francisco	-3694
▁4-	-3695
▁marble	-3696
▁crop	-3697
▁cad	-3698
▁standing	-3699
▁many	-3700
▁seen	-3701
ighter	-3702
part	-3703
▁seas	-3704
▁compet	-3705
▁filter	-3706
▁facebook	-3707
.8	-3708
▁pub	-3709
▁jones	-3710
▁begin	-3711
▁perform	-3712
▁ll	-3713
▁pum	-3714
▁sink	-3715
▁chang	-3716
ession	-3717
/2	-3718
aze	-3719
▁creek	-3720
urt	-3721
ante	-3722
yon	-3723
▁brides	-3724
▁bread	-3725
▁awesome	-3726
ulpt	-3727
bridge	-3728
▁tools	-3729
istan	-3730
ission	-3731
▁glitter	-3732
▁ken	-3733
▁chest	-3734
▁rhin	-3735
▁invest	-3736
▁trump	-3737
▁ten	-3738
▁beat	-3739
▁tickets	-3740
▁fat	-3741
▁seal	-3742
▁marri	-3743
▁chiffon	-3744
▁histor	-3745
▁pretty	-3746
ify	-3747
▁wil	-3748
nie	-3749
ughter	-3750
▁helmet	-3751
▁infant	-3752
het	-3753
ecut	-3754
▁connect	-3755
▁slide	-3756
▁lif	-3757
weight	-3758
▁deb	-3759
▁latest	-3760
▁bass	-3761
▁cuff	-3762
▁hip	-3763
▁salt	-3764
unt	-3765
▁flying	-3766
nc	-3767
▁path	-3768
ae	-3769
▁pier	-3770
watch	-3771
▁jeff	-3772
lah	-3773
war	-3774
▁scene	-3775
▁kim	-3776
▁airport	-3777
-12	-3778
▁spirit	-3779
▁jord	-3780
▁ak	-3781
▁jr	-3782
▁iii	-3783
▁together	-3784
▁charger	-3785
▁ancient	-3786
ateg	-3787
▁taylor	-3788
▁without	-3789
▁mountains	-3790
ucky	-3791
.6	-3792
▁1:	-3793
zil	-3794
inum	-3795
▁launch	-3796
▁pieces	-3797
▁plush	-3798
▁tab	-3799
▁junior	-3800
▁element	-3801
▁kingdom	-3802
▁doctor	-3803
▁trousers	-3804
sg	-3805
▁altern	-3806
▁senior	-3807
▁bedrooms	-3808
▁yam	-3809
▁times	-3810
▁::	-3811
▁quote	-3812
▁ghost	-3813
duction	-3814
▁cha	-3815
born	-3816
▁pil	-3817
▁hero	-3818
utions	-3819
▁jar	-3820
▁decorations	-3821
wich	-3822
▁jud	-3823
ockey	-3824
alo	-3825
▁toe	-3826
▁ec	-3827
bury	-3828
iron	-3829
▁software	-3830
iami	-3831
▁2006	-3832
▁lip	-3833
▁mike	-3834
inn	-3835
aste	-3836
▁foundation	-3837
vc	-3838
▁milk	-3839
▁hop	-3840
▁velvet	-3841
▁mexico	-3842
▁econ	-3843
▁os	-3844
▁lett	-3845
uth	-3846
4)	-3847
▁infl	-3848
▁patent	-3849
▁legg	-3850
eta	-3851
▁scot	-3852
kg	-3853
▁ride	-3854
▁sher	-3855
▁columb	-3856
▁idea	-3857
▁protection	-3858
ami	-3859
asted	-3860
bell	-3861
▁away	-3862
see	-3863
▁ing	-3864
▁ltd	-3865
▁interview	-3866
▁sap	-3867
tv	-3868
89	-3869
li	-3870
▁systems	-3871
▁dad	-3872
▁tx	-3873
▁ruff	-3874
▁mu	-3875
▁crow	-3876
ography	-3877
▁embroidery	-3878
izes	-3879
▁batman	-3880
▁orch	-3881
▁jon	-3882
▁lift	-3883
▁hats	-3884
▁signs	-3885
▁wearing	-3886
▁detached	-3887
▁colored	-3888
ores	-3889
▁corner	-3890
▁geometric	-3891
▁31	-3892
▁quad	-3893
▁sony	-3894
▁local	-3895
▁ways	-3896
▁rs	-3897
▁fed	-3898
station	-3899
▁cerem	-3900
▁oxford	-3901
▁sculpt	-3902
▁gate	-3903
ulation	-3904
ploy	-3905
▁union	-3906
roy	-3907
ski	-3908
▁jean	-3909
.00	-3910
ki	-3911
friend	-3912
lyn	-3913
▁reviews	-3914
▁oklah	-3915
▁silhouette	-3916
▁55	-3917
▁does	-3918
amples	-3919
▁common	-3920
▁dar	-3921
▁rot	-3922
▁storm	-3923
▁drum	-3924
ima	-3925
71	-3926
▁import	-3927
otic	-3928
▁400	-3929
esy	-3930
ters	-3931
▁steph	-3932
▁ire	-3933
▁rare	-3934
ius	-3935
.4	-3936
ena	-3937
erc	-3938
ases	-3939
gold	-3940
edia	-3941
▁hawai	-3942
pre	-3943
▁flip	-3944
▁carpet	-3945
▁eb	-3946
▁character	-3947
▁smok	-3948
▁leggings	-3949
▁along	-3950
don	-3951
▁shadow	-3952
▁remote	-3953
▁stitch	-3954
aver	-3955
▁preview	-3956
▁regular	-3957
▁roman	-3958
▁fairy	-3959
▁cookies	-3960
▁cocktail	-3961
▁jes	-3962
▁monday	-3963
▁raw	-3964
▁republic	-3965
▁swing	-3966
▁guest	-3967
▁bamboo	-3968
▁aerial	-3969
▁popular	-3970
acks	-3971
▁joy	-3972
▁late	-3973
▁coo	-3974
▁brazil	-3975
▁captain	-3976
▁elephant	-3977
▁mls	-3978
▁steam	-3979
▁chandelier	-3980
▁ivory	-3981
photograph	-3982
▁mcc	-3983
▁duck	-3984
▁rabb	-3985
▁refr	-3986
▁1,	-3987
▁jenn	-3988
▁charles	-3989
▁exclusive	-3990
▁olive	-3991
▁bik	-3992
▁miami	-3993
▁handle	-3994
▁excel	-3995
▁97	-3996
▁dim	-3997
▁monitor	-3998
▁harr	-3999
▁tub	-4000
▁refriger	-4001
etting	-4002
▁stuff	-4003
▁universal	-4004
opard	-4005
▁inspired	-4006
▁dust	-4007
▁delic	-4008
▁platinum	-4009
▁meeting	-4010
▁suede	-4011
▁bak	-4012
▁irish	-4013
wall	-4014
▁practice	-4015
▁stories	-4016
▁oven	-4017
▁vent	-4018
▁each	-4019
▁linen	-4020
year	-4021
issan	-4022
▁houston	-4023
▁skyline	-4024
▁information	-4025
▁speaker	-4026
zer	-4027
logo	-4028
▁says	-4029
omy	-4030
▁memory	-4031
▁kate	-4032
istant	-4033
▁(1	-4034
iance	-4035
▁jordan	-4036
▁theat	-4037
▁jackson	-4038
ined	-4039
▁memorial	-4040
▁38	-4041
▁pouch	-4042
▁lac	-4043
▁2000	-4044
uesday	-4045
▁wordpress	-4046
▁garage	-4047
▁kaw	-4048
▁songs	-4049
▁multip	-4050
▁elite	-4051
▁job	-4052
▁coral	-4053
▁kiss	-4054
ulator	-4055
▁brick	-4056
▁liber	-4057
atory	-4058
aa	-4059
▁hil	-4060
ertain	-4061
61	-4062
▁contin	-4063
41	-4064
▁cos	-4065
▁signature	-4066
▁lost	-4067
▁southern	-4068
▁liqu	-4069
app	-4070
sil	-4071
nesday	-4072
▁obama	-4073
▁pray	-4074
▁turkey	-4075
▁sed	-4076
izona	-4077
▁personalised	-4078
bird	-4079
▁cape	-4080
58	-4081
▁plain	-4082
▁financ	-4083
▁loun	-4084
▁would	-4085
▁fra	-4086
▁soul	-4087
ursday	-4088
))	-4089
▁tax	-4090
▁silicone	-4091
west	-4092
▁teen	-4093
▁eyes	-4094
parent	-4095
▁2005	-4096
▁wig	-4097
▁dies	-4098
▁words	-4099
▁rc	-4100
▁suites	-4101
▁toile	-4102
▁sleep	-4103
icy	-4104
▁thr	-4105
▁folding	-4106
dale	-4107
asure	-4108
▁bible	-4109
▁sac	-4110
aren	-4111
▁sad	-4112
▁maker	-4113
▁choice	-4114
▁sleeves	-4115
▁mit	-4116
▁monogram	-4117
iety	-4118
▁platform	-4119
wa	-4120
▁und	-4121
▁feed	-4122
▁infographic	-4123
izza	-4124
▁ast	-4125
▁shr	-4126
▁cancer	-4127
han	-4128
▁umb	-4129
▁39	-4130
▁rod	-4131
brid	-4132
▁ore	-4133
▁sect	-4134
ils	-4135
▁skate	-4136
-00	-4137
▁bicycle	-4138
▁architecture	-4139
▁hills	-4140
▁matte	-4141
▁360	-4142
▁district	-4143
edy	-4144
sea	-4145
uce	-4146
▁na	-4147
▁too	-4148
entic	-4149
roller	-4150
▁pie	-4151
01	-4152
ream	-4153
▁tuesday	-4154
4,	-4155
lay	-4156
mel	-4157
ten	-4158
▁wick	-4159
▁piano	-4160
▁teacher	-4161
▁camo	-4162
▁lovely	-4163
▁northern	-4164
dvd	-4165
chair	-4166
▁details	-4167
▁bh	-4168
▁wednesday	-4169
▁arab	-4170
ossom	-4171
▁ankle	-4172
king	-4173
▁release	-4174
▁cupc	-4175
▁sketch	-4176
ira	-4177
erv	-4178
▁01	-4179
attan	-4180
▁prep	-4181
▁manager	-4182
▁flyer	-4183
▁monkey	-4184
reat	-4185
▁execut	-4186
wr	-4187
▁occ	-4188
▁stripes	-4189
ops	-4190
▁ohio	-4191
▁pix	-4192
▁boss	-4193
ili	-4194
▁lunch	-4195
iet	-4196
▁tum	-4197
▁powerpoint	-4198
▁pom	-4199
▁chip	-4200
▁с	-4201
▁bac	-4202
▁motion	-4203
▁sitting	-4204
▁panor	-4205
sen	-4206
gypt	-4207
▁thursday	-4208
▁harv	-4209
▁img	-4210
▁ell	-4211
▁600	-4212
▁para	-4213
iley	-4214
▁env	-4215
▁nba	-4216
▁corpor	-4217
400	-4218
▁share	-4219
emb	-4220
▁apk	-4221
▁hit	-4222
▁cardigan	-4223
▁len	-4224
▁arrow	-4225
▁plug	-4226
▁maple	-4227
▁65	-4228
hand	-4229
▁fif	-4230
▁wifi	-4231
je	-4232
▁beaded	-4233
▁susp	-4234
ila	-4235
▁42	-4236
abet	-4237
▁hosp	-4238
▁neon	-4239
ulated	-4240
leg	-4241
▁kenn	-4242
▁value	-4243
▁yamaha	-4244
▁kat	-4245
▁deco	-4246
▁к	-4247
▁si	-4248
illy	-4249
▁vert	-4250
▁•	-4251
▁bin	-4252
sleeve	-4253
▁cargo	-4254
▁giant	-4255
▁hu	-4256
▁author	-4257
▁rentals	-4258
▁welcome	-4259
▁steve	-4260
ences	-4261
▁relax	-4262
▁watches	-4263
▁driver	-4264
▁vehicle	-4265
▁myst	-4266
▁wing	-4267
▁accent	-4268
▁2,	-4269
▁palace	-4270
▁wreath	-4271
aled	-4272
▁enjoy	-4273
▁potter	-4274
ache	-4275
usion	-4276
▁vanity	-4277
eline	-4278
▁canon	-4279
▁ceremony	-4280
▁makes	-4281
▁flo	-4282
▁prime	-4283
▁nfl	-4284
▁wish	-4285
▁dodge	-4286
▁badge	-4287
▁stay	-4288
foto	-4289
mal	-4290
▁scoop	-4291
bab	-4292
cap	-4293
▁lcd	-4294
▁capt	-4295
▁behind	-4296
▁tri	-4297
▁soap	-4298
aving	-4299
▁bedding	-4300
▁ax	-4301
▁arizona	-4302
▁islands	-4303
▁desert	-4304
▁hockey	-4305
▁hollywood	-4306
coal	-4307
▁activity	-4308
▁certific	-4309
▁inte	-4310
▁looks	-4311
▁third	-4312
▁internet	-4313
▁inspiration	-4314
▁pul	-4315
▁convert	-4316
heart	-4317
mo	-4318
▁que	-4319
▁ireland	-4320
▁fiber	-4321
▁loose	-4322
▁rap	-4323
▁tube	-4324
▁falls	-4325
▁tables	-4326
▁blossom	-4327
una	-4328
▁hay	-4329
ivery	-4330
▁teal	-4331
bi	-4332
▁infin	-4333
▁swimming	-4334
▁transport	-4335
isa	-4336
▁kr	-4337
azer	-4338
umes	-4339
▁smooth	-4340
wd	-4341
ows	-4342
▁balance	-4343
burgh	-4344
▁egypt	-4345
▁jer	-4346
asp	-4347
▁benef	-4348
▁woven	-4349
▁stylish	-4350
▁try	-4351
▁above	-4352
▁promot	-4353
▁entertain	-4354
▁gradu	-4355
kt	-4356
▁daniel	-4357
▁hook	-4358
▁pizza	-4359
▁lounge	-4360
onto	-4361
▁catch	-4362
▁hus	-4363
▁33	-4364
▁come	-4365
▁whit	-4366
▁houses	-4367
▁account	-4368
hood	-4369
abeth	-4370
▁canad	-4371
▁authentic	-4372
tech	-4373
▁wallpapers	-4374
enna	-4375
▁https	-4376
▁sunrise	-4377
care	-4378
▁heather	-4379
▁championship	-4380
▁father	-4381
▁caps	-4382
▁cutting	-4383
▁polit	-4384
▁umbrell	-4385
▁jet	-4386
▁issue	-4387
▁brother	-4388
.7	-4389
▁showing	-4390
duc	-4391
▁won	-4392
▁rectangle	-4393
▁polish	-4394
▁nissan	-4395
road	-4396
▁mick	-4397
▁nik	-4398
dress	-4399
__	-4400
▁taken	-4401
▁nar	-4402
▁cafe	-4403
▁gaming	-4404
▁paintings	-4405
▁michigan	-4406
gal	-4407
▁ron	-4408
▁asian	-4409
▁vine	-4410
▁could	-4411
▁lantern	-4412
▁horiz	-4413
org	-4414
▁hello	-4415
▁fal	-4416
▁thick	-4417
▁marine	-4418
hib	-4419
▁bout	-4420
▁edit	-4421
▁daughter	-4422
▁proble	-4423
▁staff	-4424
▁balloon	-4425
▁strong	-4426
▁lu	-4427
▁hope	-4428
▁ranch	-4429
▁tone	-4430
ih	-4431
▁soup	-4432
▁fu	-4433
itage	-4434
▁tray	-4435
lights	-4436
▁(5	-4437
▁eat	-4438
▁tact	-4439
rock	-4440
▁walnut	-4441
▁tops	-4442
▁drawer	-4443
ista	-4444
▁him	-4445
▁polaris	-4446
▁(3	-4447
ylon	-4448
▁audi	-4449
▁chief	-4450
▁spanish	-4451
auc	-4452
600	-4453
▁peach	-4454
▁labels	-4455
▁nation	-4456
▁hunter	-4457
▁stair	-4458
▁vegas	-4459
▁hur	-4460
oul	-4461
▁microsoft	-4462
apy	-4463
phones	-4464
▁pak	-4465
▁empire	-4466
▁wat	-4467
▁carl	-4468
▁sewing	-4469
-18	-4470
▁kee	-4471
▁impro	-4472
▁eth	-4473
▁workshop	-4474
-200	-4475
▁projects	-4476
bers	-4477
▁lil	-4478
▁puppy	-4479
▁title	-4480
▁64	-4481
▁lp	-4482
▁pcs	-4483
ele	-4484
spl	-4485
▁bug	-4486
▁shelf	-4487
▁meet	-4488
▁leopard	-4489
▁von	-4490
▁protest	-4491
▁smiling	-4492
▁wings	-4493
▁polka	-4494
▁ark	-4495
▁canyon	-4496
▁dip	-4497
▁did	-4498
▁buttons	-4499
▁sectional	-4500
▁nas	-4501
large	-4502
▁flooring	-4503
▁athlet	-4504
▁finger	-4505
▁worksheets	-4506
paper	-4507
▁jazz	-4508
▁scen	-4509
▁mist	-4510
▁statue	-4511
hr	-4512
▁titan	-4513
▁mechan	-4514
▁hind	-4515
▁groom	-4516
arel	-4517
▁les	-4518
▁//	-4519
self	-4520
▁purse	-4521
▁plants	-4522
▁cann	-4523
aya	-4524
aign	-4525
▁active	-4526
face	-4527
icorn	-4528
▁lord	-4529
▁upper	-4530
▁gloss	-4531
▁downtown	-4532
▁narr	-4533
▁thin	-4534
▁broad	-4535
▁former	-4536
▁madrid	-4537
▁imm	-4538
▁exc	-4539
fire	-4540
▁pacific	-4541
pm	-4542
▁brew	-4543
▁xbox	-4544
▁34	-4545
▁gb	-4546
▁keych	-4547
▁executive	-4548
▁copy	-4549
▁eliz	-4550
▁lind	-4551
▁phys	-4552
▁exerc	-4553
▁million	-4554
aland	-4555
▁civil	-4556
▁happ	-4557
▁bush	-4558
clos	-4559
▁bottom	-4560
▁burg	-4561
▁georg	-4562
pur	-4563
thouse	-4564
):	-4565
▁engra	-4566
▁virginia	-4567
hell	-4568
▁gorge	-4569
▁(0	-4570
real	-4571
▁sd	-4572
▁discover	-4573
▁signed	-4574
▁temper	-4575
blog	-4576
ysis	-4577
▁kitty	-4578
▁andrew	-4579
▁hospital	-4580
97	-4581
oons	-4582
▁deer	-4583
▁safe	-4584
isk	-4585
omic	-4586
▁catal	-4587
▁cav	-4588
▁langu	-4589
▁twist	-4590
▁pepper	-4591
gro	-4592
▁planet	-4593
link	-4594
▁got	-4595
▁dial	-4596
aco	-4597
word	-4598
elling	-4599
96	-4600
▁bot	-4601
▁lauren	-4602
hedral	-4603
▁fantasy	-4604
▁foam	-4605
▁yard	-4606
▁theatre	-4607
post	-4608
rete	-4609
▁shaped	-4610
▁ht	-4611
▁russian	-4612
.5""	-4613
▁reve	-4614
▁journey	-4615
▁favorite	-4616
undy	-4617
world	-4618
▁stan	-4619
pan	-4620
▁sizes	-4621
▁supplies	-4622
▁chron	-4623
▁£	-4624
▁mang	-4625
▁2012.	-4626
ema	-4627
▁lime	-4628
▁cher	-4629
▁wife	-4630
▁alp	-4631
▁tent	-4632
tim	-4633
▁turbo	-4634
▁rabbit	-4635
▁multicol	-4636
▁jung	-4637
bit	-4638
iption	-4639
▁session	-4640
fc	-4641
ogue	-4642
▁delivery	-4643
▁lex	-4644
boy	-4645
▁fans	-4646
styles	-4647
▁solutions	-4648
gc	-4649
▁romantic	-4650
▁opening	-4651
onia	-4652
▁drawn	-4653
acle	-4654
▁pap	-4655
ushed	-4656
▁cooking	-4657
cards	-4658
▁everything	-4659
▁nice	-4660
▁charcoal	-4661
▁aren	-4662
▁object	-4663
▁strawberry	-4664
aged	-4665
aced	-4666
▁fancy	-4667
▁remov	-4668
▁pressure	-4669
▁prop	-4670
▁treatment	-4671
▁cod	-4672
▁budd	-4673
▁nursery	-4674
adel	-4675
more	-4676
chool	-4677
▁horn	-4678
mat	-4679
coln	-4680
▁combo	-4681
▁weekend	-4682
▁keyboard	-4683
150	-4684
▁kings	-4685
▁printer	-4686
phy	-4687
oring	-4688
▁eggs	-4689
▁essay	-4690
▁rhinestone	-4691
▁arms	-4692
unning	-4693
sey	-4694
ffic	-4695
eller	-4696
igo	-4697
aven	-4698
utes	-4699
anna	-4700
suit	-4701
▁emerald	-4702
86	-4703
ifier	-4704
bal	-4705
▁cats	-4706
▁pitch	-4707
▁advert	-4708
oen	-4709
▁sant	-4710
▁vegan	-4711
ito	-4712
▁chem	-4713
▁tam	-4714
▁premiere	-4715
▁ib	-4716
▁virt	-4717
sgiving	-4718
▁assort	-4719
▁famous	-4720
▁dais	-4721
urance	-4722
87	-4723
▁goal	-4724
▁casino	-4725
▁dirt	-4726
▁surface	-4727
▁minister	-4728
92	-4729
▁source	-4730
max	-4731
▁gab	-4732
▁oklahoma	-4733
▁formal	-4734
▁another	-4735
▁cycling	-4736
home	-4737
▁listing	-4738
▁activities	-4739
▁rome	-4740
iders	-4741
▁aqua	-4742
▁nylon	-4743
▁porcel	-4744
▁boxes	-4745
ament	-4746
▁much	-4747
▁fireplace	-4748
endo	-4749
stein	-4750
▁intel	-4751
▁liquid	-4752
▁discount	-4753
52	-4754
pu	-4755
cat	-4756
▁rise	-4757
vision	-4758
▁hid	-4759
▁reser	-4760
cont	-4761
blu	-4762
▁manchester	-4763
used	-4764
▁refrigerator	-4765
▁ginger	-4766
▁concert	-4767
▁financial	-4768
jack	-4769
▁trian	-4770
ensive	-4771
▁compos	-4772
▁cathedral	-4773
▁celebrates	-4774
▁bey	-4775
▁anton	-4776
ros	-4777
▁bit	-4778
▁fitted	-4779
▁cartridge	-4780
▁challenge	-4781
eling	-4782
▁pain	-4783
▁jay	-4784
uters	-4785
▁comics	-4786
reg	-4787
▁glen	-4788
apple	-4789
estyle	-4790
▁blend	-4791
▁address	-4792
▁channel	-4793
▁rectang	-4794
▁pullover	-4795
onut	-4796
▁protector	-4797
▁tiny	-4798
▁(200	-4799
▁fuel	-4800
▁om	-4801
▁requ	-4802
▁lewis	-4803
▁unicorn	-4804
aza	-4805
gue	-4806
.99	-4807
▁tiles	-4808
itation	-4809
▁wy	-4810
▁fill	-4811
ration	-4812
▁capac	-4813
▁gardens	-4814
▁advanced	-4815
▁kent	-4816
▁spect	-4817
▁lincoln	-4818
▁enter	-4819
▁elizabeth	-4820
_0	-4821
▁ryan	-4822
▁worksheet	-4823
ario	-4824
▁hob	-4825
izing	-4826
▁boutique	-4827
hew	-4828
▁whole	-4829
gi	-4830
▁skinny	-4831
▁rat	-4832
▁adapter	-4833
▁artwork	-4834
▁trucker	-4835
▁ka	-4836
▁businessman	-4837
▁sr	-4838
▁bib	-4839
▁ful	-4840
▁prec	-4841
▁shark	-4842
uki	-4843
▁2004	-4844
▁witch	-4845
worth	-4846
▁bulb	-4847
▁inches	-4848
tw	-4849
▁academy	-4850
▁jesus	-4851
▁grill	-4852
▁porcelain	-4853
▁3/4	-4854
▁hamp	-4855
▁cosmet	-4856
▁collage	-4857
▁heritage	-4858
▁apartments	-4859
▁government	-4860
▁dur	-4861
mainland	-4862
rot	-4863
▁chan	-4864
▁major	-4865
▁dash	-4866
▁triple	-4867
▁toronto	-4868
atoes	-4869
▁cater	-4870
vide	-4871
▁hunt	-4872
splash	-4873
▁blues	-4874
▁umbrella	-4875
prise	-4876
▁takes	-4877
ello	-4878
▁mort	-4879
▁clouds	-4880
▁electronic	-4881
ications	-4882
stick	-4883
▁camping	-4884
oli	-4885
tec	-4886
▁mugs	-4887
▁campaign	-4888
▁liter	-4889
▁employ	-4890
▁sauce	-4891
▁attack	-4892
▁director	-4893
ended	-4894
▁bever	-4895
aga	-4896
▁tin	-4897
▁kong	-4898
agu	-4899
ception	-4900
▁letters	-4901
▁thanksgiving	-4902
ogy	-4903
udio	-4904
rael	-4905
▁feet	-4906
▁vase	-4907
▁bridesmaid	-4908
▁shield	-4909
▁bern	-4910
▁korean	-4911
▁mission	-4912
▁aust	-4913
rec	-4914
▁pel	-4915
ustry	-4916
▁magnetic	-4917
▁sv	-4918
▁bubble	-4919
▁zipper	-4920
▁example	-4921
▁fc	-4922
yst	-4923
▁blond	-4924
▁rope	-4925
▁whis	-4926
▁canadian	-4927
▁knee	-4928
ailand	-4929
▁russia	-4930
2-	-4931
▁#3	-4932
▁slow	-4933
▁podcast	-4934
▁2)	-4935
▁environ	-4936
dec	-4937
cher	-4938
▁marsh	-4939
emade	-4940
▁styles	-4941
▁analysis	-4942
▁steps	-4943
▁contract	-4944
▁md	-4945
▁concrete	-4946
56	-4947
▁rip	-4948
▁total	-4949
benz	-4950
epend	-4951
▁hug	-4952
▁{	-4953
ika	-4954
▁gam	-4955
▁chef	-4956
▁bry	-4957
eland	-4958
▁revolution	-4959
fo	-4960
▁nc	-4961
▁suz	-4962
ifer	-4963
▁gram	-4964
imp	-4965
▁coconut	-4966
rad	-4967
▁ike	-4968
▁jane	-4969
▁riding	-4970
▁desktop	-4971
▁ky	-4972
▁trade	-4973
▁experience	-4974
▁transparent	-4975
caa	-4976
▁backyard	-4977
▁abb	-4978
▁nin	-4979
oust	-4980
▁bunny	-4981
▁springs	-4982
▁rectangular	-4983
iki	-4984
olis	-4985
▁gps	-4986
phire	-4987
▁conv	-4988
▁height	-4989
▁greek	-4990
▁arg	-4991
▁notes	-4992
▁menu	-4993
▁summit	-4994
2.	-4995
▁struct	-4996
engu	-4997
▁dro	-4998
▁feather	-4999
▁courtesy	-5000
▁burberry	-5001
▁originals	-5002
59	-5003
▁events	-5004
▁resident	-5005
▁vision	-5006
sn	-5007
▁flav	-5008
▁delicious	-5009
ych	-5010
▁arc	-5011
▁vio	-5012
ecraft	-5013
rac	-5014
▁110	-5015
▁simpl	-5016
aska	-5017
▁pickup	-5018
▁beds	-5019
▁bond	-5020
▁clim	-5021
▁seattle	-5022
▁worth	-5023
▁parent	-5024
▁split	-5025
▁medic	-5026
▁string	-5027
bus	-5028
oda	-5029
▁clay	-5030
unge	-5031
▁sexy	-5032
▁chalk	-5033
▁knitted	-5034
▁polished	-5035
silver	-5036
▁mermaid	-5037
oodle	-5038
▁refer	-5039
▁convertible	-5040
walk	-5041
▁nest	-5042
▁update	-5043
▁(4	-5044
▁ott	-5045
▁crack	-5046
gest	-5047
▁balls	-5048
class	-5049
▁runner	-5050
▁entertainment	-5051
▁diesel	-5052
▁globe	-5053
rys	-5054
▁coupe	-5055
▁industry	-5056
ка	-5057
▁const	-5058
▁mickey	-5059
▁burgundy	-5060
▁diamonds	-5061
▁australian	-5062
▁mosa	-5063
▁hybrid	-5064
▁roller	-5065
▁society	-5066
▁5-	-5067
▁chel	-5068
▁features	-5069
▁mattress	-5070
skin	-5071
▁minimal	-5072
▁transform	-5073
▁bor	-5074
ements	-5075
▁prices	-5076
▁lam	-5077
▁rand	-5078
▁saw	-5079
ees	-5080
▁meth	-5081
rem	-5082
▁patrick	-5083
▁compress	-5084
▁nyc	-5085
▁pvc	-5086
▁zomb	-5087
▁sapphire	-5088
▁nam	-5089
▁presents	-5090
agne	-5091
▁zealand	-5092
▁chap	-5093
▁faith	-5094
mann	-5095
▁alt	-5096
▁instagram	-5097
ingham	-5098
iva	-5099
otted	-5100
▁retail	-5101
▁victoria	-5102
▁brief	-5103
▁theater	-5104
▁exhib	-5105
▁homemade	-5106
▁flu	-5107
▁tart	-5108
▁bucket	-5109
▁buffalo	-5110
▁1500	-5111
▁association	-5112
▁frozen	-5113
asc	-5114
▁pun	-5115
arian	-5116
▁2013.	-5117
▁react	-5118
▁integr	-5119
▁jumper	-5120
icles	-5121
foot	-5122
lets	-5123
▁(10	-5124
▁production	-5125
250	-5126
▁ts	-5127
oming	-5128
2)	-5129
rich	-5130
▁brad	-5131
▁volk	-5132
▁shutter	-5133
▁coming	-5134
▁cass	-5135
▁victorian	-5136
sup	-5137
pose	-5138
▁dots	-5139
▁ruby	-5140
oid	-5141
▁printing	-5142
▁teddy	-5143
▁cookie	-5144
▁hairstyles	-5145
ova	-5146
istry	-5147
change	-5148
▁clark	-5149
▁beanie	-5150
mere	-5151
▁bars	-5152
▁vertical	-5153
works	-5154
▁attract	-5155
▁musical	-5156
▁independ	-5157
▁kay	-5158
▁cooper	-5159
▁going	-5160
▁thread	-5161
bc	-5162
▁sq	-5163
▁featured	-5164
▁loss	-5165
▁brooklyn	-5166
▁resc	-5167
▁unt	-5168
▁heel	-5169
▁fence	-5170
▁gorgeous	-5171
▁sab	-5172
▁nint	-5173
▁grace	-5174
▁environment	-5175
right	-5176
▁dollar	-5177
pol	-5178
girl	-5179
▁forever	-5180
93	-5181
uts	-5182
look	-5183
▁entry	-5184
▁barcel	-5185
▁halo	-5186
idence	-5187
▁videos	-5188
на	-5189
▁190	-5190
▁hors	-5191
▁lavender	-5192
▁pok	-5193
▁format	-5194
▁driving	-5195
jet	-5196
ivity	-5197
rs	-5198
▁lum	-5199
ients	-5200
▁knight	-5201
▁compact	-5202
▁thunder	-5203
iator	-5204
▁leon	-5205
▁department	-5206
"",	-5207
▁miniature	-5208
▁celebration	-5209
▁rooms	-5210
▁bent	-5211
▁breath	-5212
▁jog	-5213
▁mock	-5214
rics	-5215
▁push	-5216
-15	-5217
▁guy	-5218
▁headband	-5219
▁hong	-5220
▁ds	-5221
▁cc	-5222
▁instant	-5223
dney	-5224
▁language	-5225
▁held	-5226
▁kick	-5227
▁dess	-5228
▁introduction	-5229
4-	-5230
rian	-5231
▁1080	-5232
▁beyond	-5233
▁circuit	-5234
list	-5235
pies	-5236
▁paw	-5237
▁andre	-5238
▁condo	-5239
▁capital	-5240
iac	-5241
etsy	-5242
▁masc	-5243
▁columbia	-5244
▁narrated	-5245
▁farmhouse	-5246
▁pav	-5247
ione	-5248
ivel	-5249
otive	-5250
▁nails	-5251
▁overs	-5252
▁chevron	-5253
ias	-5254
nel	-5255
▁gets	-5256
▁blazer	-5257
rie	-5258
apore	-5259
igs	-5260
▁hole	-5261
swagen	-5262
▁apparel	-5263
iven	-5264
outs	-5265
bourne	-5266
▁frost	-5267
nic	-5268
▁02	-5269
▁israel	-5270
▁members	-5271
▁messenger	-5272
▁ferr	-5273
▁patri	-5274
▁yearbook	-5275
▁offer	-5276
▁pads	-5277
▁nickel	-5278
oration	-5279
▁liberty	-5280
apt	-5281
yer	-5282
mount	-5283
▁brake	-5284
▁backsplash	-5285
athan	-5286
▁rick	-5287
hetic	-5288
▁colorado	-5289
▁emerg	-5290
▁robot	-5291
▁shade	-5292
▁instit	-5293
▁cosplay	-5294
▁od	-5295
▁tip	-5296
▁revers	-5297
▁crim	-5298
▁budget	-5299
▁rv	-5300
embly	-5301
▁calc	-5302
▁yarn	-5303
emon	-5304
▁curtains	-5305
▁hits	-5306
▁rights	-5307
▁celebrate	-5308
mls	-5309
▁85	-5310
alph	-5311
▁stew	-5312
▁camer	-5313
chel	-5314
▁berlin	-5315
▁thailand	-5316
eman	-5317
hs	-5318
lad	-5319
▁trek	-5320
omi	-5321
▁brain	-5322
▁traffic	-5323
aro	-5324
scr	-5325
lie	-5326
▁sid	-5327
▁dall	-5328
▁ross	-5329
ources	-5330
▁console	-5331
▁2.5	-5332
▁grain	-5333
▁seven	-5334
ht	-5335
▁3,	-5336
burn	-5337
▁grat	-5338
▁buckle	-5339
▁lodge	-5340
▁contact	-5341
/5	-5342
▁0.	-5343
oenix	-5344
▁2003	-5345
▁bone	-5346
▁ligh	-5347
uments	-5348
▁branch	-5349
mart	-5350
▁pengu	-5351
comm	-5352
▁cs	-5353
▁stephen	-5354
▁#5	-5355
▁pour	-5356
▁dv	-5357
char	-5358
▁font	-5359
▁outfit	-5360
▁defe	-5361
▁dell	-5362
▁cleaner	-5363
▁culture	-5364
iper	-5365
▁mun	-5366
pat	-5367
▁ornaments	-5368
▁arena	-5369
▁certified	-5370
▁photographic	-5371
▁rd	-5372
▁cris	-5373
ending	-5374
▁oregon	-5375
▁volkswagen	-5376
▁maz	-5377
▁created	-5378
▁user	-5379
limited	-5380
cs	-5381
▁era	-5382
▁tig	-5383
▁adventures	-5384
▁kl	-5385
hold	-5386
▁kinder	-5387
length	-5388
kit	-5389
▁volt	-5390
6)	-5391
icip	-5392
▁lines	-5393
▁cruise	-5394
▁sleeping	-5395
▁vegetables	-5396
▁vit	-5397
▁pipe	-5398
▁duvet	-5399
▁kansas	-5400
▁indones	-5401
▁barcelona	-5402
aly	-5403
▁37	-5404
▁4,	-5405
▁ipod	-5406
▁textbook	-5407
▁manufactur	-5408
▁asp	-5409
screen	-5410
▁1960	-5411
▁even	-5412
atable	-5413
84	-5414
hen	-5415
▁nutr	-5416
▁shaw	-5417
▁earring	-5418
video	-5419
▁mean	-5420
▁jacob	-5421
▁parade	-5422
▁options	-5423
pink	-5424
cam	-5425
▁ikea	-5426
▁movies	-5427
.)	-5428
har	-5429
▁adam	-5430
uggage	-5431
bing	-5432
ouver	-5433
▁elev	-5434
▁said	-5435
▁getting	-5436
▁friendly	-5437
▁2:	-5438
▁moo	-5439
▁anch	-5440
▁innov	-5441
▁container	-5442
▁including	-5443
phia	-5444
▁978	-5445
▁gog	-5446
▁trends	-5447
▁ble	-5448
▁kle	-5449
▁document	-5450
aling	-5451
oured	-5452
▁ward	-5453
eech	-5454
▁eric	-5455
▁rally	-5456
▁д	-5457
/3	-5458
▁kelly	-5459
▁merc	-5460
▁selling	-5461
▁tactical	-5462
ieve	-5463
▁woods	-5464
aps	-5465
cop	-5466
▁crazy	-5467
▁jungle	-5468
▁distress	-5469
ogn	-5470
rain	-5471
▁hub	-5472
▁1970	-5473
▁alloy	-5474
▁textured	-5475
▁800	-5476
force	-5477
▁across	-5478
▁ot	-5479
▁diet	-5480
▁leader	-5481
▁turtle	-5482
▁escape	-5483
▁sheets	-5484
▁wins	-5485
▁ridge	-5486
▁uphol	-5487
▁justice	-5488
▁stockfoto	-5489
▁feb	-5490
▁fog	-5491
▁jumps	-5492
▁grav	-5493
▁pist	-5494
▁harley	-5495
▁sculpture	-5496
▁dawn	-5497
▁flow	-5498
▁ncaa	-5499
▁ja	-5500
▁circa	-5501
adelphia	-5502
▁shock	-5503
▁sydney	-5504
▁designed	-5505
oni	-5506
▁crossbody	-5507
▁9780	-5508
▁covered	-5509
▁tony	-5510
▁flood	-5511
▁crash	-5512
▁luggage	-5513
▁kevin	-5514
▁cb	-5515
plus	-5516
▁assembly	-5517
83	-5518
▁pitt	-5519
▁models	-5520
94	-5521
-14	-5522
obe	-5523
asty	-5524
getty	-5525
▁cole	-5526
▁twe	-5527
▁meat	-5528
▁phoenix	-5529
▁section	-5530
orsche	-5531
▁trust	-5532
ancouver	-5533
▁smartphone	-5534
usa	-5535
▁heroes	-5536
bul	-5537
▁smoke	-5538
▁always	-5539
▁potato	-5540
hur	-5541
▁inj	-5542
▁setting	-5543
▁graphics	-5544
tone	-5545
▁lawn	-5546
▁pond	-5547
▁saree	-5548
▁atlanta	-5549
▁planning	-5550
1,	-5551
fol	-5552
▁zebra	-5553
▁anne	-5554
▁felt	-5555
▁psych	-5556
2,	-5557
▁answ	-5558
▁zone	-5559
▁freed	-5560
▁mosaic	-5561
▁dancing	-5562
inary	-5563
▁lower	-5564
uten	-5565
▁alice	-5566
▁views	-5567
▁michel	-5568
▁tattoos	-5569
vol	-5570
▁llc	-5571
▁chrys	-5572
▁choose	-5573
fin	-5574
mus	-5575
ori	-5576
▁eu	-5577
▁1950	-5578
ership	-5579
▁korea	-5580
lon	-5581
▁seed	-5582
▁alexander	-5583
▁taking	-5584
iy	-5585
▁disp	-5586
▁brothers	-5587
▁rocks	-5588
sing	-5589
ability	-5590
▁han	-5591
▁stamps	-5592
▁players	-5593
▁lightweight	-5594
awa	-5595
bler	-5596
▁lag	-5597
▁diego	-5598
▁wax	-5599
▁mall	-5600
roit	-5601
▁fisher	-5602
▁49	-5603
▁uv	-5604
pson	-5605
▁blush	-5606
▁salon	-5607
inson	-5608
▁demon	-5609
▁singapore	-5610
▁unif	-5611
3-	-5612
▁au	-5613
estic	-5614
ields	-5615
ocr	-5616
▁suite	-5617
▁grunge	-5618
ares	-5619
▁armour	-5620
▁wheat	-5621
▁joseph	-5622
▁44	-5623
amas	-5624
ela	-5625
shine	-5626
▁dental	-5627
▁timber	-5628
-16	-5629
▁apron	-5630
▁dreams	-5631
aser	-5632
▁ident	-5633
▁edward	-5634
▁ф	-5635
ava	-5636
▁eating	-5637
▁statement	-5638
▁liver	-5639
▁banana	-5640
inton	-5641
▁celt	-5642
ification	-5643
▁henry	-5644
▁porsche	-5645
▁keychain	-5646
grey	-5647
▁clin	-5648
▁presentation	-5649
kee	-5650
uum	-5651
▁hoop	-5652
▁figur	-5653
▁walls	-5654
▁kir	-5655
▁lit	-5656
▁examples	-5657
▁stunning	-5658
800	-5659
hy	-5660
▁wid	-5661
▁hawaii	-5662
▁lighthouse	-5663
umbers	-5664
▁mast	-5665
▁antonio	-5666
▁philadelphia	-5667
▁ww	-5668
▁blind	-5669
▁native	-5670
▁georgia	-5671
inge	-5672
▁sent	-5673
▁angle	-5674
ensions	-5675
▁magnets	-5676
▁puff	-5677
▁snowfl	-5678
osa	-5679
▁tract	-5680
▁hiking	-5681
iro	-5682
igation	-5683
▁mans	-5684
▁emergency	-5685
▁virtual	-5686
▁scotland	-5687
itude	-5688
▁imper	-5689
▁merry	-5690
power	-5691
▁dubai	-5692
▁harbor	-5693
▁topps	-5694
▁gather	-5695
cil	-5696
▁mol	-5697
boss	-5698
▁180	-5699
▁900	-5700
itten	-5701
▁outf	-5702
▁barrel	-5703
umm	-5704
▁dor	-5705
▁impress	-5706
cloth	-5707
gn	-5708
▁gay	-5709
icket	-5710
▁corporate	-5711
▁thai	-5712
▁ralph	-5713
▁brushed	-5714
▁macbook	-5715
▁alphabet	-5716
▁greatest	-5717
54	-5718
dam	-5719
▁fauc	-5720
rance	-5721
▁mold	-5722
▁scrap	-5723
▁morgan	-5724
▁salmon	-5725
▁olympic	-5726
▁engineering	-5727
high	-5728
▁dallas	-5729
▁moto	-5730
▁daisy	-5731
▁questions	-5732
57	-5733
ghan	-5734
ycled	-5735
▁peri	-5736
gie	-5737
▁ware	-5738
cal	-5739
▁speaks	-5740
▁tournam	-5741
vania	-5742
▁laun	-5743
▁miller	-5744
▁mystery	-5745
▁parad	-5746
▁speech	-5747
▁nintendo	-5748
▁п	-5749
▁pit	-5750
▁viet	-5751
▁bt	-5752
▁polyester	-5753
▁enc	-5754
iques	-5755
▁bom	-5756
ria	-5757
▁hex	-5758
▁carn	-5759
▁josh	-5760
▁lite	-5761
paint	-5762
▁sheep	-5763
▁though	-5764
ilton	-5765
▁fount	-5766
dc	-5767
▁tu	-5768
▁hours	-5769
ovo	-5770
▁jewell	-5771
▁historic	-5772
uster	-5773
▁lamb	-5774
▁alarm	-5775
inois	-5776
▁grid	-5777
▁fridge	-5778
▁winner	-5779
▁massage	-5780
pin	-5781
▁wet	-5782
▁pirate	-5783
▁announc	-5784
ording	-5785
▁empty	-5786
▁dessert	-5787
tb	-5788
erd	-5789
lent	-5790
▁tulle	-5791
▁enamel	-5792
usd	-5793
▁imag	-5794
ificial	-5795
▁render	-5796
ships	-5797
▁proof	-5798
▁controller	-5799
▁bord	-5800
▁mail	-5801
▁hidden	-5802
▁visual	-5803
▁dak	-5804
▁wi	-5805
opher	-5806
engers	-5807
▁rover	-5808
▁buildings	-5809
▁harness	-5810
▁stere	-5811
asaki	-5812
▁impact	-5813
▁playstation	-5814
ek	-5815
!!!	-5816
▁carved	-5817
▁midi	-5818
aka	-5819
82	-5820
ables	-5821
▁brill	-5822
iment	-5823
▁zoom	-5824
ffe	-5825
wash	-5826
▁sit	-5827
▁talks	-5828
▁competition	-5829
▁à	-5830
owa	-5831
▁convers	-5832
/1	-5833
▁mason	-5834
▁greece	-5835
cho	-5836
▁03	-5837
▁lg	-5838
▁mk	-5839
▁750	-5840
▁screw	-5841
▁sedan	-5842
▁essentials	-5843
big	-5844
pal	-5845
gress	-5846
▁voice	-5847
rup	-5848
active	-5849
ands	-5850
▁lotus	-5851
▁mexican	-5852
▁records	-5853
▁chelsea	-5854
▁waterfall	-5855
cha	-5856
▁gau	-5857
▁etern	-5858
▁austin	-5859
ules	-5860
▁amp	-5861
▁cube	-5862
▁method	-5863
▁therapy	-5864
▁thermal	-5865
▁detroit	-5866
▁tournament	-5867
▁viv	-5868
▁foil	-5869
cope	-5870
▁flags	-5871
▁swiss	-5872
▁nutrition	-5873
ovski	-5874
▁installation	-5875
▁3.0	-5876
▁airl	-5877
▁really	-5878
▁lid	-5879
▁shore	-5880
▁blocks	-5881
▁manh	-5882
▁then	-5883
▁compat	-5884
▁anthony	-5885
▁victory	-5886
▁1.5	-5887
▁bc	-5888
full	-5889
▁skills	-5890
vention	-5891
ni	-5892
▁pm	-5893
▁liv	-5894
▁bangle	-5895
▁strateg	-5896
▁vw	-5897
▁region	-5898
▁holy	-5899
▁blanc	-5900
▁knitting	-5901
▁insurance	-5902
▁tass	-5903
▁broch	-5904
photography	-5905
▁goes	-5906
▁capacity	-5907
iat	-5908
issa	-5909
▁current	-5910
▁protective	-5911
inc	-5912
▁trend	-5913
▁assorted	-5914
mag	-5915
wide	-5916
▁mud	-5917
▁dome	-5918
▁bullet	-5919
▁growth	-5920
▁champagne	-5921
▁sir	-5922
scent	-5923
▁glow	-5924
▁mario	-5925
▁relig	-5926
▁ls	-5927
mont	-5928
▁pony	-5929
▁colours	-5930
▁reversible	-5931
mah	-5932
▁gm	-5933
▁cob	-5934
onsin	-5935
▁boho	-5936
▁naut	-5937
▁reception	-5938
aca	-5939
mes	-5940
▁postcards	-5941
▁eas	-5942
▁2002	-5943
▁pastel	-5944
▁sunflower	-5945
etta	-5946
▁drill	-5947
▁veter	-5948
dav	-5949
▁swivel	-5950
53	-5951
▁5,	-5952
▁ah	-5953
▁rang	-5954
▁#4	-5955
▁hunting	-5956
▁packaging	-5957
▁ios	-5958
▁dram	-5959
▁artificial	-5960
ires	-5961
ucks	-5962
▁poss	-5963
lap	-5964
wan	-5965
rets	-5966
▁nic	-5967
▁gent	-5968
▁inflatable	-5969
▁spy	-5970
▁bears	-5971
▁juice	-5972
▁pumps	-5973
▁watt	-5974
▁mg	-5975
sy	-5976
▁evolution	-5977
▁move	-5978
ause	-5979
▁pleated	-5980
▁midnight	-5981
▁xs	-5982
▁dup	-5983
▁jumpsuit	-5984
▁organizer	-5985
▁aid	-5986
▁feel	-5987
▁moving	-5988
▁pred	-5989
▁waves	-5990
ра	-5991
▁distressed	-5992
ti	-5993
▁beef	-5994
▁toilet	-5995
elli	-5996
oren	-5997
▁sarah	-5998
▁forward	-5999
▁drag	-6000
▁princ	-6001
▁target	-6002
▁newborn	-6003
▁sandwich	-6004
▁flick	-6005
▁fried	-6006
▁granite	-6007
▁classroom	-6008
▁1-	-6009
hard	-6010
▁ave	-6011
▁forum	-6012
gart	-6013
ikes	-6014
ettes	-6015
▁honor	-6016
▁months	-6017
▁sneaker	-6018
hall	-6019
▁benefits	-6020
▁eastern	-6021
▁kap	-6022
▁electrical	-6023
▁legends	-6024
▁swar	-6025
▁seeds	-6026
▁career	-6027
▁nw	-6028
quer	-6029
▁haz	-6030
▁goth	-6031
▁berry	-6032
▁dynam	-6033
▁fruits	-6034
▁customer	-6035
▁illinois	-6036
hz	-6037
▁isl	-6038
brown	-6039
▁ranger	-6040
▁chapter	-6041
▁distrib	-6042
▁twitter	-6043
700	-6044
standing	-6045
▁alpha	-6046
bean	-6047
▁allen	-6048
rus	-6049
ders	-6050
▁tommy	-6051
dig	-6052
ugal	-6053
small	-6054
▁lily	-6055
▁places	-6056
▁vacuum	-6057
▁indonesia	-6058
ei	-6059
▁types	-6060
▁theory	-6061
▁lib	-6062
▁chop	-6063
▁ruffle	-6064
▁tribal	-6065
▁cv	-6066
▁tort	-6067
whe	-6068
size	-6069
▁knife	-6070
▁cz	-6071
▁motors	-6072
▁themed	-6073
▁bearing	-6074
hor	-6075
▁hindi	-6076
berries	-6077
▁splash	-6078
tm	-6079
▁vietnam	-6080
▁yourself	-6081
esa	-6082
▁ace	-6083
▁swed	-6084
▁britain	-6085
rage	-6086
▁cran	-6087
▁interest	-6088
▁application	-6089
uv	-6090
▁bomb	-6091
▁decals	-6092
bir	-6093
det	-6094
▁zoo	-6095
▁bour	-6096
▁cham	-6097
▁crib	-6098
product	-6099
▁72	-6100
▁rid	-6101
lotte	-6102
▁terry	-6103
▁stands	-6104
▁walker	-6105
▁925	-6106
▁layer	-6107
▁freedom	-6108
▁kawasaki	-6109
wom	-6110
▁mural	-6111
▁headphones	-6112
▁nom	-6113
mill	-6114
▁peak	-6115
▁zero	-6116
ething	-6117
▁powered	-6118
▁cashmere	-6119
dark	-6120
gate	-6121
pill	-6122
▁born	-6123
▁brun	-6124
love	-6125
▁dh	-6126
▁brian	-6127
▁layout	-6128
▁mush	-6129
▁optim	-6130
8)	-6131
sex	-6132
▁deals	-6133
▁в	-6134
sters	-6135
▁cooler	-6136
ports	-6137
▁ngc	-6138
idson	-6139
▁hack	-6140
rength	-6141
▁actor	-6142
▁tales	-6143
▁maint	-6144
▁stones	-6145
▁roasted	-6146
▁350	-6147
▁score	-6148
▁toner	-6149
▁fel	-6150
▁wol	-6151
▁mustang	-6152
▁shutterstock	-6153
▁rescue	-6154
▁certificate	-6155
▁frames	-6156
▁workout	-6157
▁chevy	-6158
▁defin	-6159
▁since	-6160
flowers	-6161
ls	-6162
▁sor	-6163
▁fred	-6164
ui	-6165
oft	-6166
▁sof	-6167
▁beck	-6168
▁nj	-6169
▁exercise	-6170
▁tn	-6171
▁champions	-6172
▁04	-6173
▁700	-6174
▁warrior	-6175
wing	-6176
▁#10	-6177
▁220	-6178
▁lyn	-6179
anth	-6180
▁swarovski	-6181
▁lyst	-6182
▁results	-6183
▁floating	-6184
▁shooting	-6185
▁mounted	-6186
▁vancouver	-6187
▁laund	-6188
▁rugby	-6189
▁transfer	-6190
orth	-6191
▁mob	-6192
▁glove	-6193
▁stream	-6194
die	-6195
▁teaching	-6196
7)	-6197
81	-6198
▁osc	-6199
▁suv	-6200
aries	-6201
ected	-6202
▁prayer	-6203
▁numbers	-6204
▁supreme	-6205
▁items	-6206
▁jason	-6207
▁rolling	-6208
▁52	-6209
best	-6210
▁lamin	-6211
eur	-6212
athers	-6213
▁anchor	-6214
▁meal	-6215
3,	-6216
oh	-6217
▁mant	-6218
▁resin	-6219
▁period	-6220
▁license	-6221
▁winning	-6222
▁bio	-6223
▁amber	-6224
▁triangle	-6225
3.	-6226
▁deg	-6227
▁fear	-6228
iced	-6229
▁rugs	-6230
▁moist	-6231
▁council	-6232
▁harvest	-6233
▁surround	-6234
▁mig	-6235
ylvania	-6236
▁vo	-6237
osaur	-6238
▁extension	-6239
51	-6240
900	-6241
left	-6242
▁oem	-6243
▁dick	-6244
▁rolls	-6245
▁entrance	-6246
▁ti	-6247
▁cycle	-6248
▁jennifer	-6249
dis	-6250
▁rum	-6251
ju	-6252
▁cozy	-6253
▁cups	-6254
▁plum	-6255
cci	-6256
▁bottles	-6257
ective	-6258
▁lau	-6259
▁rig	-6260
▁acoust	-6261
▁compan	-6262
▁jewellery	-6263
▁preschool	-6264
▁gy	-6265
▁batt	-6266
91	-6267
▁hollow	-6268
▁diagrams	-6269
▁residential	-6270
fs	-6271
▁neigh	-6272
drop	-6273
▁1/4	-6274
▁anat	-6275
▁cakes	-6276
▁prote	-6277
▁coaster	-6278
▁cricket	-6279
▁classics	-6280
▁6-	-6281
mission	-6282
▁trucks	-6283
uz	-6284
▁typ	-6285
▁tier	-6286
▁obs	-6287
▁heels	-6288
▁charlotte	-6289
osh	-6290
▁125	-6291
▁tus	-6292
▁frog	-6293
▁glam	-6294
▁kits	-6295
▁sandal	-6296
▁both	-6297
▁evil	-6298
▁!	-6299
▁46	-6300
▁beans	-6301
▁kitch	-6302
▁almond	-6303
▁outdoors	-6304
▁pean	-6305
▁coupon	-6306
▁loaf	-6307
▁maps	-6308
▁generation	-6309
hot	-6310
undai	-6311
▁mega	-6312
▁gic	-6313
▁kil	-6314
▁paj	-6315
▁might	-6316
▁panels	-6317
orig	-6318
▁khan	-6319
▁suzuki	-6320
▁cupcake	-6321
▁planner	-6322
fun	-6323
plan	-6324
▁phill	-6325
▁brooch	-6326
▁philipp	-6327
ghz	-6328
▁slot	-6329
▁quilted	-6330
▁compatible	-6331
leans	-6332
▁mode	-6333
▁chains	-6334
▁gil	-6335
▁tooth	-6336
▁elastic	-6337
▁conditioner	-6338
hill	-6339
▁rim	-6340
▁hung	-6341
▁wedge	-6342
▁based	-6343
▁donald	-6344
▁having	-6345
▁officer	-6346
▁brochure	-6347
▁domin	-6348
-30	-6349
atar	-6350
▁ach	-6351
verter	-6352
▁lyrics	-6353
▁arrival	-6354
▁(1)	-6355
▁jas	-6356
charge	-6357
▁panda	-6358
▁sensor	-6359
ido	-6360
▁101	-6361
▁aver	-6362
▁spiral	-6363
acht	-6364
▁apps	-6365
▁bulld	-6366
▁wonderful	-6367
rum	-6368
▁ug	-6369
christ	-6370
▁johnny	-6371
news	-6372
▁tel	-6373
▁mousepad	-6374
▁asia	-6375
▁cath	-6376
▁breast	-6377
▁rena	-6378
▁jess	-6379
▁rush	-6380
nesota	-6381
▁landscap	-6382
▁hart	-6383
▁mars	-6384
▁picnic	-6385
▁duff	-6386
▁poker	-6387
▁damask	-6388
▁relief	-6389
▁scient	-6390
▁minecraft	-6391
iler	-6392
▁highway	-6393
▁message	-6394
haw	-6395
▁jobs	-6396
▁loop	-6397
▁parking	-6398
▁vans	-6399
▁stereo	-6400
▁laundry	-6401
▁matching	-6402
icial	-6403
▁andy	-6404
▁neut	-6405
▁safari	-6406
eps	-6407
▁beard	-6408
▁pasta	-6409
▁trendy	-6410
▁cambridge	-6411
park	-6412
▁etsy	-6413
asonic	-6414
cas	-6415
ulous	-6416
▁stuffed	-6417
▁terrier	-6418
-11	-6419
▁blonde	-6420
▁intell	-6421
▁43	-6422
▁hab	-6423
▁tal	-6424
track	-6425
▁arrang	-6426
▁marriage	-6427
▁strength	-6428
lar	-6429
dog	-6430
▁kam	-6431
▁facts	-6432
▁valve	-6433
wick	-6434
fre	-6435
▁7,	-6436
uma	-6437
▁xp	-6438
tion	-6439
▁ale	-6440
ifying	-6441
▁tunic	-6442
▁ferrari	-6443
▁recover	-6444
▁utility	-6445
▁orient	-6446
▁server	-6447
▁hyundai	-6448
▁infinity	-6449
ez	-6450
▁jimmy	-6451
ото	-6452
▁6,	-6453
arium	-6454
▁ninja	-6455
pk	-6456
▁07	-6457
▁winds	-6458
picture	-6459
▁pas	-6460
▁mx	-6461
bles	-6462
▁lob	-6463
media	-6464
▁content	-6465
▁manhattan	-6466
ctic	-6467
▁dutch	-6468
▁spoon	-6469
▁sword	-6470
▁write	-6471
▁highlights	-6472
most	-6473
▁meme	-6474
▁kitchens	-6475
/10	-6476
▁05	-6477
▁drinking	-6478
▁sile	-6479
yellow	-6480
▁closeup	-6481
▁simon	-6482
▁tomato	-6483
rep	-6484
▁carat	-6485
▁formula	-6486
▁matthew	-6487
▁riv	-6488
apolis	-6489
▁sle	-6490
▁fountain	-6491
▁stationery	-6492
▁kal	-6493
▁sever	-6494
▁countertop	-6495
graf	-6496
▁labor	-6497
▁adults	-6498
▁weddings	-6499
bread	-6500
emble	-6501
▁cliff	-6502
▁eau	-6503
▁fern	-6504
▁fully	-6505
itzer	-6506
ually	-6507
scription	-6508
▁wildlife	-6509
-01	-6510
oria	-6511
rast	-6512
▁jump	-6513
▁synt	-6514
▁incre	-6515
▁route	-6516
▁faucet	-6517
▁pictured	-6518
mg	-6519
mate	-6520
resent	-6521
▁accessory	-6522
▁valentines	-6523
▁christopher	-6524
mov	-6525
olo	-6526
from	-6527
▁term	-6528
▁democr	-6529
▁grilled	-6530
anco	-6531
olin	-6532
▁08	-6533
grade	-6534
▁associ	-6535
▁because	-6536
▁10,	-6537
▁hammer	-6538
zel	-6539
▁crit	-6540
▁tell	-6541
▁blade	-6542
mot	-6543
arts	-6544
▁xia	-6545
▁greg	-6546
▁anna	-6547
▁wisc	-6548
▁embell	-6549
▁orleans	-6550
▁720	-6551
▁mazda	-6552
▁3.	-6553
lers	-6554
series	-6555
▁primary	-6556
▁solution	-6557
▁capit	-6558
▁minnesota	-6559
wind	-6560
▁м	-6561
▁bare	-6562
robe	-6563
quart	-6564
▁among	-6565
▁cropped	-6566
▁commission	-6567
you	-6568
plane	-6569
▁heaven	-6570
▁candles	-6571
ontal	-6572
▁shades	-6573
▁bild	-6574
▁lucky	-6575
▁resources	-6576
▁sight	-6577
▁denver	-6578
▁paradise	-6579
▁grape	-6580
uda	-6581
▁wik	-6582
▁bung	-6583
▁starter	-6584
▁turk	-6585
▁boost	-6586
▁chanel	-6587
▁module	-6588
raphed	-6589
▁emboss	-6590
▁fighter	-6591
▁seating	-6592
▁47	-6593
boat	-6594
▁mut	-6595
▁spac	-6596
▁camel	-6597
▁chess	-6598
rix	-6599
▁psd	-6600
▁colon	-6601
▁melbourne	-6602
ugu	-6603
▁54	-6604
▁gs	-6605
ught	-6606
aring	-6607
▁ashley	-6608
▁offers	-6609
▁mushroom	-6610
▁dock	-6611
▁zirc	-6612
isters	-6613
▁wisconsin	-6614
/12	-6615
river	-6616
▁robin	-6617
xx	-6618
ras	-6619
▁carb	-6620
▁gang	-6621
▁growing	-6622
orange	-6623
▁advertising	-6624
aine	-6625
▁grip	-6626
▁follow	-6627
▁tah	-6628
▁carrier	-6629
▁medicine	-6630
fil	-6631
presso	-6632
sylvania	-6633
▁holidays	-6634
▁trainers	-6635
cor	-6636
hair	-6637
ashes	-6638
▁trunk	-6639
▁tours	-6640
▁pokemon	-6641
120	-6642
▁lb	-6643
vens	-6644
▁pent	-6645
▁rif	-6646
▁nord	-6647
▁scan	-6648
▁shut	-6649
-17	-6650
▁celtic	-6651
▁rasp	-6652
▁agency	-6653
▁partners	-6654
▁following	-6655
▁liverpool	-6656
▁oversized	-6657
▁gum	-6658
izard	-6659
ategy	-6660
▁accom	-6661
▁bring	-6662
▁chill	-6663
▁moroc	-6664
▁snake	-6665
▁sister	-6666
▁sha	-6667
▁email	-6668
▁getty	-6669
▁soldier	-6670
▁graduation	-6671
▁8,	-6672
ockets	-6673
▁balloons	-6674
▁turt	-6675
▁assass	-6676
▁workers	-6677
▁cig	-6678
block	-6679
▁ones	-6680
▁bacon	-6681
▁plates	-6682
olic	-6683
▁nob	-6684
atter	-6685
▁hans	-6686
fashion	-6687
▁instruct	-6688
page	-6689
▁hoo	-6690
▁exhibition	-6691
ader	-6692
uble	-6693
▁3.5	-6694
▁pole	-6695
▁secrets	-6696
▁sunshine	-6697
zo	-6698
▁rf	-6699
▁same	-6700
ilight	-6701
▁approach	-6702
oir	-6703
▁shelves	-6704
bt	-6705
ля	-6706
chant	-6707
▁comes	-6708
▁broken	-6709
coat	-6710
food	-6711
▁scoot	-6712
9)	-6713
▁ig	-6714
▁baker	-6715
▁hamilton	-6716
▁pt	-6717
▁mul	-6718
▁marg	-6719
▁reuters	-6720
▁pakistan	-6721
ер	-6722
▁99	-6723
▁11,	-6724
▁alab	-6725
▁moss	-6726
ов	-6727
sun	-6728
rose	-6729
▁zen	-6730
immer	-6731
▁soph	-6732
▁crest	-6733
▁murder	-6734
▁within	-6735
▁hud	-6736
▁cork	-6737
▁sunny	-6738
▁closet	-6739
▁decorated	-6740
ippers	-6741
▁chips	-6742
▁eight	-6743
▁promo	-6744
▁appear	-6745
▁danger	-6746
▁enclos	-6747
▁progress	-6748
oa	-6749
eway	-6750
flies	-6751
▁ebay	-6752
▁shift	-6753
▁lifestyle	-6754
▁3:	-6755
etts	-6756
struct	-6757
▁bann	-6758
▁minutes	-6759
▁xt	-6760
▁utah	-6761
▁drawings	-6762
▁athletic	-6763
▁pennsylvania	-6764
/6	-6765
ems	-6766
▁gul	-6767
itaire	-6768
▁boats	-6769
▁laugh	-6770
▁exchange	-6771
▁jagu	-6772
▁medal	-6773
▁engraved	-6774
▁lightning	-6775
ened	-6776
▁insulated	-6777
hp	-6778
▁mak	-6779
▁tiff	-6780
▁trial	-6781
▁skateboard	-6782
▁dal	-6783
▁huge	-6784
outure	-6785
▁points	-6786
inf	-6787
▁hydr	-6788
▁miles	-6789
▁federal	-6790
ued	-6791
▁(18	-6792
▁epic	-6793
▁division	-6794
▁blackberry	-6795
gles	-6796
▁pins	-6797
▁carib	-6798
▁alaska	-6799
ierra	-6800
▁acoustic	-6801
kes	-6802
▁later	-6803
▁remod	-6804
▁intellig	-6805
110	-6806
▁06	-6807
▁corv	-6808
▁lith	-6809
▁figures	-6810
▁gemstone	-6811
game	-6812
▁hed	-6813
heim	-6814
▁фото	-6815
winter	-6816
▁mam	-6817
▁2001	-6818
▁truth	-6819
▁holland	-6820
erg	-6821
▁66	-6822
▁keys	-6823
oulder	-6824
▁jacqu	-6825
▁muscle	-6826
▁weekly	-6827
▁terrace	-6828
▁brow	-6829
▁ahead	-6830
▁belle	-6831
▁insert	-6832
▁superman	-6833
350	-6834
▁citiz	-6835
▁noir	-6836
string	-6837
ustain	-6838
▁2014.	-6839
▁joint	-6840
▁pride	-6841
▁voc	-6842
▁botan	-6843
▁angels	-6844
uder	-6845
▁respons	-6846
anne	-6847
▁hem	-6848
▁hire	-6849
▁nine	-6850
▁sched	-6851
▁thing	-6852
▁harris	-6853
▁chrysler	-6854
▁converse	-6855
▁850	-6856
▁bold	-6857
▁cage	-6858
▁loft	-6859
▁derby	-6860
▁amy	-6861
▁aur	-6862
ometer	-6863
▁grad	-6864
bel	-6865
▁alf	-6866
▁mis	-6867
▁iowa	-6868
▁strategy	-6869
▁institute	-6870
▁lined	-6871
▁ni	-6872
▁jackets	-6873
▁gord	-6874
▁housing	-6875
dro	-6876
iden	-6877
▁dave	-6878
▁purch	-6879
scape	-6880
table	-6881
▁anime	-6882
▁keral	-6883
▁consult	-6884
▁(12	-6885
essee	-6886
▁mats	-6887
▁rules	-6888
▁cyl	-6889
▁pilot	-6890
▁justin	-6891
chi	-6892
othing	-6893
▁smile	-6894
▁closed	-6895
▁howard	-6896
▁venice	-6897
▁headset	-6898
▁warehouse	-6899
▁fm	-6900
ties	-6901
▁explor	-6902
oud	-6903
woman	-6904
▁croc	-6905
▁kath	-6906
_20	-6907
upe	-6908
ampoo	-6909
▁mile	-6910
▁ay	-6911
▁incred	-6912
▁penguin	-6913
▁talking	-6914
▁bah	-6915
▁coins	-6916
▁become	-6917
▁defense	-6918
mmet	-6919
▁pharm	-6920
▁arkansas	-6921
▁ced	-6922
▁gluten	-6923
▁trophy	-6924
▁everyday	-6925
▁drug	-6926
▁studios	-6927
▁pineapple	-6928
inkle	-6929
▁helic	-6930
▁sock	-6931
yright	-6932
▁eagles	-6933
▁philip	-6934
▁seasons	-6935
▁included	-6936
umer	-6937
▁devil	-6938
▁reach	-6939
▁waste	-6940
▁bulldog	-6941
▁flaming	-6942
▁serving	-6943
ни	-6944
clip	-6945
▁1920	-6946
▁cheer	-6947
▁tough	-6948
▁giclee	-6949
▁collector	-6950
▁synthetic	-6951
▁maria	-6952
▁ticket	-6953
▁trading	-6954
▁1980	-6955
▁yank	-6956
▁davis	-6957
▁lesson	-6958
mad	-6959
pot	-6960
athon	-6961
▁bohem	-6962
store	-6963
master	-6964
▁something	-6965
pn	-6966
▁png	-6967
▁sel	-6968
▁came	-6969
▁motiv	-6970
▁1999	-6971
▁maine	-6972
▁member	-6973
aru	-6974
▁raj	-6975
▁hatch	-6976
▁hardware	-6977
opter	-6978
idents	-6979
▁reader	-6980
▁meg	-6981
▁russell	-6982
▁costumes	-6983
▁pics	-6984
▁paperback	-6985
▁temperature	-6986
▁communication	-6987
lando	-6988
lington	-6989
▁trainer	-6990
▁cosmetic	-6991
draw	-6992
▁fry	-6993
▁fail	-6994
▁giants	-6995
web	-6996
ends	-6997
▁please	-6998
▁warriors	-6999
bank	-7000
▁bella	-7001
▁recycled	-7002
▁56	-7003
▁(2)	-7004
▁cond	-7005
orable	-7006
▁foods	-7007
▁pitts	-7008
plement	-7009
▁lessons	-7010
▁changing	-7011
▁12,	-7012
▁lun	-7013
▁costa	-7014
▁stewart	-7015
din	-7016
photos	-7017
▁finance	-7018
▁dye	-7019
short	-7020
images	-7021
▁descr	-7022
▁gauge	-7023
▁khaki	-7024
allow	-7025
▁kerala	-7026
▁worker	-7027
▁pillows	-7028
▁replica	-7029
▁tennessee	-7030
▁minnie	-7031
▁compass	-7032
▁multiple	-7033
doo	-7034
▁ali	-7035
▁princip	-7036
▁election	-7037
▁waters	-7038
abil	-7039
▁sham	-7040
▁extreme	-7041
▁bodys	-7042
▁grove	-7043
ón	-7044
▁=	-7045
nat	-7046
▁aluminium	-7047
▁multicolor	-7048
▁(6	-7049
▁bes	-7050
▁ign	-7051
▁aware	-7052
▁ingred	-7053
▁xiaomi	-7054
▁command	-7055
▁panorama	-7056
▁legacy	-7057
190	-7058
lence	-7059
▁sierra	-7060
▁charlie	-7061
▁palette	-7062
▁uniform	-7063
▁avengers	-7064
eled	-7065
illo	-7066
veland	-7067
▁plane	-7068
▁flickr	-7069
▁carp	-7070
uitton	-7071
▁called	-7072
▁carter	-7073
▁effects	-7074
del	-7075
▁admin	-7076
▁portland	-7077
yt	-7078
▁ker	-7079
▁nur	-7080
▁pon	-7081
▁peac	-7082
▁congress	-7083
▁includes	-7084
▁solitaire	-7085
cow	-7086
▁dent	-7087
▁sheer	-7088
▁finding	-7089
rones	-7090
▁lanc	-7091
▁zombie	-7092
hes	-7093
▁15,	-7094
ethyst	-7095
▁lakes	-7096
▁mrs	-7097
▁pcgs	-7098
▁greet	-7099
ctional	-7100
▁brilliant	-7101
▁ri	-7102
bone	-7103
▁ree	-7104
▁dura	-7105
▁shab	-7106
▁chuck	-7107
▁sustain	-7108
▁legs	-7109
▁presidential	-7110
kl	-7111
pop	-7112
owned	-7113
bn	-7114
core	-7115
▁duo	-7116
▁doing	-7117
▁lexus	-7118
▁outer	-7119
▁plaque	-7120
8-	-7121
▁holds	-7122
▁klein	-7123
▁complex	-7124
▁mlb	-7125
▁once	-7126
▁occas	-7127
▁tassel	-7128
▁9,	-7129
count	-7130
▁join	-7131
▁phase	-7132
▁sf	-7133
ived	-7134
▁cf	-7135
▁dl	-7136
▁nok	-7137
▁racer	-7138
▁fourth	-7139
▁attends	-7140
▁scottish	-7141
▁political	-7142
▁horizontal	-7143
asures	-7144
▁meadow	-7145
▁rocket	-7146
▁stress	-7147
▁photoshop	-7148
ener	-7149
▁buddha	-7150
▁bungal	-7151
▁contest	-7152
▁soon	-7153
▁materials	-7154
ev	-7155
ummer	-7156
▁cinema	-7157
▁released	-7158
/16	-7159
andy	-7160
▁needs	-7161
-13	-7162
ups	-7163
▁tang	-7164
▁plays	-7165
▁provin	-7166
▁cors	-7167
▁12""	-7168
▁discuss	-7169
▁husband	-7170
▁tractor	-7171
▁dinosaur	-7172
▁$1)	-7173
▁licens	-7174
▁assistant	-7175
▁manufacturer	-7176
ledge	-7177
▁porch	-7178
bat	-7179
quis	-7180
▁fuse	-7181
▁queens	-7182
ological	-7183
▁agre	-7184
▁shampoo	-7185
▁franklin	-7186
jan	-7187
▁tc	-7188
▁sharp	-7189
▁aircraft	-7190
▁twilight	-7191
▁duke	-7192
▁gucci	-7193
▁question	-7194
▁owner	-7195
▁95	-7196
bike	-7197
▁panoramic	-7198
®#	-7199
▁albert	-7200
▁lovers	-7201
_1	-7202
▁shed	-7203
▁airplane	-7204
▁survival	-7205
▁solo	-7206
▁legal	-7207
▁simply	-7208
▁09	-7209
wards	-7210
istics	-7211
▁swirl	-7212
▁madison	-7213
▁amethyst	-7214
▁slippers	-7215
▁technical	-7216
▁files	-7217
▁afford	-7218
▁volley	-7219
▁romance	-7220
▁bodysuit	-7221
▁ask	-7222
▁parl	-7223
▁lives	-7224
▁baskets	-7225
▁protein	-7226
▁defeated	-7227
▁structure	-7228
▁ballet	-7229
▁recent	-7230
▁resolution	-7231
▁gira	-7232
▁moore	-7233
▁sym	-7234
garten	-7235
▁vuitton	-7236
▁wrapped	-7237
▁milan	-7238
▁violet	-7239
▁indiana	-7240
▁20,	-7241
▁240	-7242
▁bbq	-7243
▁bunk	-7244
▁compl	-7245
▁scroll	-7246
▁couture	-7247
▁problem	-7248
▁highland	-7249
▁kg	-7250
alon	-7251
▁breaking	-7252
isley	-7253
▁disco	-7254
▁flame	-7255
▁batter	-7256
.""	-7257
shots	-7258
▁laura	-7259
.20	-7260
pic	-7261
▁moth	-7262
▁sequin	-7263
aim	-7264
▁baked	-7265
▁bless	-7266
▁alabama	-7267
▁recliner	-7268
▁(#	-7269
drive	-7270
boards	-7271
▁booth	-7272
▁wagon	-7273
▁horses	-7274
▁multif	-7275
▁needle	-7276
▁singer	-7277
▁tablets	-7278
▁tribute	-7279
▁addition	-7280
▁sweetheart	-7281
corn	-7282
▁grant	-7283
▁relation	-7284
ны	-7285
▁seo	-7286
▁jelly	-7287
▁saddle	-7288
uto	-7289
▁1)	-7290
▁elder	-7291
▁emble	-7292
atherine	-7293
▁flexible	-7294
▁nautical	-7295
▁cleveland	-7296
fram	-7297
▁located	-7298
vs	-7299
▁hr	-7300
▁rio	-7301
▁metro	-7302
▁pottery	-7303
ances	-7304
gm	-7305
via	-7306
▁punch	-7307
▁particip	-7308
put	-7309
▁ub	-7310
▁140	-7311
velope	-7312
▁railway	-7313
long	-7314
ially	-7315
▁bali	-7316
▁iran	-7317
▁wicker	-7318
▁terraced	-7319
lt	-7320
125	-7321
▁41	-7322
▁unc	-7323
▁rate	-7324
▁meter	-7325
▁snapback	-7326
▁woodland	-7327
ée	-7328
bok	-7329
▁mau	-7330
▁swan	-7331
▁claus	-7332
▁mixer	-7333
▁position	-7334
hu	-7335
ivia	-7336
ruit	-7337
▁belg	-7338
▁alternative	-7339
ampa	-7340
▁kindle	-7341
▁conserv	-7342
nity	-7343
elect	-7344
▁skele	-7345
▁topaz	-7346
▁dressing	-7347
▁dat	-7348
▁beet	-7349
▁rhod	-7350
outdoor	-7351
▁harbour	-7352
▁orlando	-7353
mir	-7354
run	-7355
▁gmc	-7356
▁rank	-7357
▁imperial	-7358
▁backgrounds	-7359
lan	-7360
▁lon	-7361
pillar	-7362
▁garlic	-7363
▁pockets	-7364
▁fotograf	-7365
▁ua	-7366
gard	-7367
▁info	-7368
▁stok	-7369
▁jumping	-7370
▁bald	-7371
▁chat	-7372
▁cooker	-7373
▁strike	-7374
▁corvette	-7375
▁handbook	-7376
ech	-7377
opy	-7378
▁59	-7379
▁ul	-7380
esta	-7381
▁gta	-7382
▁dise	-7383
▁puma	-7384
▁chunk	-7385
▁scand	-7386
ects	-7387
esign	-7388
▁bark	-7389
▁candid	-7390
▁fields	-7391
▁maison	-7392
▁minute	-7393
awei	-7394
▁kur	-7395
jector	-7396
▁those	-7397
▁jaguar	-7398
city	-7399
▁krist	-7400
▁propos	-7401
▁monument	-7402
▁recharge	-7403
▁selection	-7404
▁17,	-7405
▁dew	-7406
▁crowd	-7407
▁opal	-7408
original	-7409
▁skeleton	-7410
px	-7411
etti	-7412
▁brack	-7413
▁sandy	-7414
ador	-7415
▁mum	-7416
▁ont	-7417
▁sure	-7418
▁billy	-7419
▁hotels	-7420
ention	-7421
▁facial	-7422
▁stained	-7423
▁contrast	-7424
▁chronograph	-7425
▁hurric	-7426
▁represent	-7427
.9	-7428
aug	-7429
▁harm	-7430
▁awareness	-7431
sec	-7432
▁nv	-7433
▁bart	-7434
▁coastal	-7435
▁atlantic	-7436
▁patchwork	-7437
▁pyram	-7438
▁customized	-7439
sd	-7440
▁astr	-7441
unte	-7442
▁few	-7443
annah	-7444
ewear	-7445
▁animation	-7446
02	-7447
▁ard	-7448
colour	-7449
▁shown	-7450
▁peacock	-7451
▁copyright	-7452
this	-7453
▁remix	-7454
▁warning	-7455
spe	-7456
▁nu	-7457
▁13,	-7458
▁syn	-7459
▁mack	-7460
▁ladder	-7461
▁foreign	-7462
agan	-7463
▁eve	-7464
▁cree	-7465
▁nash	-7466
▁wales	-7467
▁moment	-7468
▁publish	-7469
▁espresso	-7470
rence	-7471
▁civic	-7472
▁sheph	-7473
▁bearings	-7474
ici	-7475
▁folk	-7476
▁calvin	-7477
▁symbols	-7478
▁crossing	-7479
bk	-7480
▁knot	-7481
▁scrapbook	-7482
▁unlimited	-7483
esis	-7484
itan	-7485
▁corre	-7486
cre	-7487
▁sz	-7488
▁abc	-7489
▁herb	-7490
▁firm	-7491
commer	-7492
▁ceo	-7493
asket	-7494
▁dolls	-7495
▁microw	-7496
▁outline	-7497
▁tiffany	-7498
▁fighting	-7499
▁problems	-7500
▁transition	-7501
uba	-7502
aron	-7503
▁gig	-7504
▁heads	-7505
▁pip	-7506
▁campus	-7507
▁raspberry	-7508
,""	-7509
iko	-7510
▁surg	-7511
▁treats	-7512
▁automotive	-7513
5/	-7514
ycles	-7515
coming	-7516
▁beast	-7517
▁figurine	-7518
ür	-7519
oufl	-7520
achus	-7521
asons	-7522
▁peanut	-7523
official	-7524
▁bungalow	-7525
▁michelle	-7526
▁punk	-7527
▁role	-7528
▁hyper	-7529
▁comedy	-7530
▁mechanical	-7531
urb	-7532
▁gib	-7533
▁lisa	-7534
▁titanium	-7535
▁elementary	-7536
live	-7537
▁pose	-7538
▁expos	-7539
ran	-7540
atics	-7541
▁vamp	-7542
▁transl	-7543
▁ki	-7544
▁30""	-7545
▁muff	-7546
▁nokia	-7547
▁burning	-7548
sol	-7549
▁ddr	-7550
▁lots	-7551
review	-7552
▁biker	-7553
▁curry	-7554
▁combat	-7555
▁butterflies	-7556
lb	-7557
▁24,	-7558
antom	-7559
raine	-7560
▁garn	-7561
▁coron	-7562
▁dryer	-7563
▁fantastic	-7564
▁caterpillar	-7565
brook	-7566
▁1990	-7567
▁outfits	-7568
▁streaming	-7569
iest	-7570
women	-7571
▁brist	-7572
▁thous	-7573
▁boxing	-7574
▁nursing	-7575
navy	-7576
▁160	-7577
▁afghan	-7578
▁fringe	-7579
american	-7580
▁applique	-7581
fold	-7582
guard	-7583
imedia	-7584
▁keeps	-7585
▁baking	-7586
mult	-7587
▁14,	-7588
▁sud	-7589
cross	-7590
▁boun	-7591
▁hund	-7592
▁postage	-7593
▁kentucky	-7594
eld	-7595
hip	-7596
ouri	-7597
▁16,	-7598
▁nikon	-7599
▁vehicles	-7600
cling	-7601
▁script	-7602
mers	-7603
ality	-7604
acters	-7605
▁hydra	-7606
▁rober	-7607
▁bomber	-7608
▁indigo	-7609
▁secretary	-7610
▁gp	-7611
okee	-7612
▁acid	-7613
▁benz	-7614
▁delhi	-7615
▁cupcakes	-7616
▁brazilian	-7617
▁historical	-7618
▁kra	-7619
uther	-7620
▁cant	-7621
▁fifa	-7622
▁depot	-7623
▁flats	-7624
▁mango	-7625
▁caribbean	-7626
/11	-7627
▁rt	-7628
▁tes	-7629
▁huawei	-7630
▁450	-7631
ewood	-7632
▁prepar	-7633
▁turkish	-7634
hal	-7635
▁creed	-7636
▁chemical	-7637
▁movement	-7638
sky	-7639
rical	-7640
▁drawers	-7641
lab	-7642
ardo	-7643
sign	-7644
action	-7645
▁rocky	-7646
▁horror	-7647
▁illumin	-7648
▁philips	-7649
▁arctic	-7650
▁malays	-7651
paperback	-7652
▁pittsburgh	-7653
bage	-7654
lena	-7655
▁для	-7656
angel	-7657
▁kurt	-7658
▁accord	-7659
▁kindergarten	-7660
▁inspirational	-7661
▁22,	-7662
▁htc	-7663
▁sig	-7664
▁risk	-7665
▁poppy	-7666
▁shiny	-7667
▁egyptian	-7668
▁machines	-7669
▁interactive	-7670
03	-7671
enance	-7672
▁absol	-7673
▁dangle	-7674
achusetts	-7675
▁(8	-7676
▁jade	-7677
▁dakota	-7678
▁article	-7679
▁fits	-7680
▁crime	-7681
▁volvo	-7682
▁survey	-7683
▁illustrated	-7684
fest	-7685
sten	-7686
▁19,	-7687
overs	-7688
▁thor	-7689
▁tigers	-7690
▁mandala	-7691
once	-7692
▁18,	-7693
▁task	-7694
▁anatomy	-7695
▁beading	-7696
▁landing	-7697
▁reserve	-7698
ault	-7699
baby	-7700
▁touring	-7701
▁carri	-7702
▁portugal	-7703
▁tac	-7704
▁gene	-7705
▁parents	-7706
▁sliding	-7707
▁#12	-7708
namon	-7709
▁alan	-7710
▁basil	-7711
▁mouth	-7712
▁twill	-7713
▁measure	-7714
▁optical	-7715
▁volunte	-7716
yd	-7717
now	-7718
asing	-7719
▁tapest	-7720
aked	-7721
▁earn	-7722
▁myth	-7723
▁rifle	-7724
▁projector	-7725
lite	-7726
▁clar	-7727
▁mood	-7728
▁washer	-7729
▁envelope	-7730
john	-7731
zech	-7732
orney	-7733
pants	-7734
market	-7735
▁compar	-7736
onic	-7737
▁mcd	-7738
law	-7739
▁done	-7740
▁graff	-7741
▁camoufl	-7742
▁steering	-7743
si	-7744
pdf	-7745
▁kin	-7746
▁pallet	-7747
▁satell	-7748
▁wishes	-7749
▁faces	-7750
▁spice	-7751
abi	-7752
-100	-7753
-150	-7754
▁sole	-7755
angler	-7756
▁lamps	-7757
▁treasure	-7758
▁announcement	-7759
gins	-7760
▁var	-7761
thumb	-7762
▁wake	-7763
▁niger	-7764
asi	-7765
ieval	-7766
▁craw	-7767
▁2016.	-7768
▁abbey	-7769
▁susan	-7770
▁recruit	-7771
▁enh	-7772
▁bling	-7773
▁cutter	-7774
▁tshirt	-7775
▁massachusetts	-7776
ishi	-7777
▁remember	-7778
iev	-7779
▁um	-7780
glas	-7781
html	-7782
brush	-7783
▁gary	-7784
▁tiss	-7785
▁forces	-7786
▁graham	-7787
iament	-7788
▁cedar	-7789
collect	-7790
▁cities	-7791
▁killer	-7792
▁ottoman	-7793
▁microwave	-7794
▁transformers	-7795
mic	-7796
▁ez	-7797
prin	-7798
stop	-7799
based	-7800
borough	-7801
▁outlet	-7802
friendly	-7803
agn	-7804
ses	-7805
anka	-7806
aret	-7807
▁emot	-7808
▁kale	-7809
▁nether	-7810
▁charging	-7811
▁marathon	-7812
▁suspension	-7813
▁comfortable	-7814
▁kel	-7815
▁delta	-7816
▁pixel	-7817
▁lenovo	-7818
▁padded	-7819
▁bohemian	-7820
ted	-7821
▁root	-7822
stered	-7823
▁killed	-7824
▁characters	-7825
450	-7826
ben	-7827
ania	-7828
ption	-7829
▁dolph	-7830
▁satchel	-7831
▁leadership	-7832
▁stem	-7833
▁policy	-7834
▁76	-7835
ulture	-7836
pedition	-7837
▁barbara	-7838
▁universe	-7839
▁dod	-7840
▁edin	-7841
▁rouge	-7842
▁actress	-7843
ever	-7844
gun	-7845
engl	-7846
▁vibr	-7847
▁cubic	-7848
▁promotion	-7849
▁58	-7850
arma	-7851
bble	-7852
icon	-7853
▁130	-7854
party	-7855
▁argent	-7856
▁believe	-7857
gio	-7858
tree	-7859
▁1200	-7860
▁fixt	-7861
▁trol	-7862
▁tires	-7863
▁maintenance	-7864
hero	-7865
uation	-7866
▁alien	-7867
▁firef	-7868
▁pound	-7869
▁hoodies	-7870
▁speakers	-7871
▁jigs	-7872
▁snack	-7873
▁petite	-7874
▁origami	-7875
▁scooter	-7876
▁explorer	-7877
▁enterprise	-7878
▁wis	-7879
▁yet	-7880
▁nort	-7881
▁pand	-7882
▁analog	-7883
▁flannel	-7884
▁snowman	-7885
▁cherokee	-7886
enser	-7887
▁flap	-7888
▁crush	-7889
▁suppliers	-7890
ла	-7891
▁23,	-7892
ailed	-7893
ework	-7894
▁airlines	-7895
▁tomatoes	-7896
cup	-7897
▁neg	-7898
▁pets	-7899
▁swift	-7900
▁rising	-7901
▁affordable	-7902
amar	-7903
▁shapes	-7904
▁extract	-7905
user	-7906
▁atv	-7907
▁ampl	-7908
▁partner	-7909
▁important	-7910
▁helicopter	-7911
iage	-7912
ishing	-7913
▁teeth	-7914
▁passion	-7915
▁climbing	-7916
how	-7917
▁produc	-7918
▁thrones	-7919
4.	-7920
kyo	-7921
hnic	-7922
irrel	-7923
▁function	-7924
▁resistant	-7925
cour	-7926
acing	-7927
links	-7928
super	-7929
▁flush	-7930
▁hoody	-7931
▁dublin	-7932
▁gentle	-7933
▁topper	-7934
▁anderson	-7935
▁96	-7936
▁ye	-7937
▁chi	-7938
▁nhl	-7939
music	-7940
▁fake	-7941
▁charge	-7942
▁kitten	-7943
▁fabulous	-7944
▁hairstyle	-7945
▁camouflage	-7946
▁aj	-7947
lett	-7948
▁lev	-7949
▁renov	-7950
▁chronic	-7951
asa	-7952
here	-7953
irus	-7954
▁laz	-7955
lywood	-7956
▁drops	-7957
▁infra	-7958
▁maxim	-7959
▁sealed	-7960
xy	-7961
▁mb	-7962
▁bran	-7963
ronics	-7964
▁pont	-7965
▁adams	-7966
▁dispos	-7967
▁shrimp	-7968
▁bookcase	-7969
▁57	-7970
▁kia	-7971
▁perry	-7972
▁column	-7973
▁giveaway	-7974
mid	-7975
gear	-7976
▁wait	-7977
▁atlas	-7978
▁shine	-7979
▁jigsaw	-7980
▁beverly	-7981
▁blogger	-7982
▁cinnamon	-7983
irst	-7984
▁salv	-7985
▁phantom	-7986
▁classical	-7987
▁excellent	-7988
▁philippines	-7989
aii	-7990
▁bisc	-7991
▁mine	-7992
▁poet	-7993
▁sling	-7994
▁eyel	-7995
▁such	-7996
▁narrow	-7997
▁cookbook	-7998
▁б	-7999
emic	-8000
▁apples	-8001
▁arrives	-8002
▁creating	-8003
▁thinking	-8004
▁panasonic	-8005
17)	-8006
ead	-8007
▁25,	-8008
▁kors	-8009
▁hampton	-8010
▁demonstr	-8011
▁launches	-8012
',	-8013
tti	-8014
andon	-8015
ternoon	-8016
▁masters	-8017
▁soldiers	-8018
▁tradition	-8019
utton	-8020
▁bust	-8021
▁reef	-8022
oscope	-8023
▁caramel	-8024
▁eternity	-8025
▁successful	-8026
bie	-8027
anty	-8028
ogany	-8029
▁receiver	-8030
▁nev	-8031
▁embossed	-8032
▁medieval	-8033
hist	-8034
resh	-8035
pless	-8036
▁broc	-8037
▁hawk	-8038
▁czech	-8039
▁squad	-8040
▁suits	-8041
▁26,	-8042
▁crane	-8043
▁expand	-8044
▁gothic	-8045
▁shabby	-8046
▁samples	-8047
5-	-8048
she	-8049
1000	-8050
▁pork	-8051
▁clown	-8052
▁giving	-8053
▁layered	-8054
▁reflection	-8055
▁wonderland	-8056
gt	-8057
atta	-8058
▁lis	-8059
lette	-8060
metal	-8061
▁plaza	-8062
▁27,	-8063
▁carrying	-8064
▁practical	-8065
raf	-8066
break	-8067
▁nude	-8068
forest	-8069
▁ideal	-8070
▁expert	-8071
▁trolley	-8072
▁collections	-8073
yx	-8074
▁и	-8075
▁draft	-8076
▁poses	-8077
▁gordon	-8078
▁saving	-8079
▁braided	-8080
▁detailed	-8081
su	-8082
▁mn	-8083
▁vale	-8084
▁known	-8085
▁nights	-8086
▁sailing	-8087
mons	-8088
▁yes	-8089
▁curly	-8090
▁slate	-8091
▁divers	-8092
▁washing	-8093
▁attorney	-8094
▁announces	-8095
omo	-8096
pass	-8097
hesive	-8098
▁funko	-8099
▁degree	-8100
▁device	-8101
your	-8102
▁21,	-8103
▁additional	-8104
▁combination	-8105
▁aub	-8106
▁mck	-8107
▁breed	-8108
▁sided	-8109
▁edinburgh	-8110
aria	-8111
cony	-8112
insp	-8113
illac	-8114
▁mayor	-8115
▁schem	-8116
▁raised	-8117
inst	-8118
▁nasa	-8119
▁2019.	-8120
▁lover	-8121
▁prison	-8122
▁missouri	-8123
7-	-8124
▁bolt	-8125
▁herbal	-8126
▁paisley	-8127
▁studies	-8128
▁realistic	-8129
▁svg	-8130
sterdam	-8131
▁interiors	-8132
▁minimalist	-8133
▁parliament	-8134
ilies	-8135
isure	-8136
▁asus	-8137
▁tack	-8138
▁cooling	-8139
▁crystals	-8140
▁ik	-8141
▁ric	-8142
▁hardwood	-8143
▁maryland	-8144
▁bracelets	-8145
▁volleyball	-8146
▁netherlands	-8147
gp	-8148
▁о	-8149
▁nurse	-8150
▁fusion	-8151
▁shakes	-8152
▁healing	-8153
▁thompson	-8154
▁rechargeable	-8155
▁#6	-8156
▁nsw	-8157
▁barr	-8158
▁gour	-8159
▁loves	-8160
▁ontario	-8161
▁satellite	-8162
▁educational	-8163
▁upholstered	-8164
▁rb	-8165
stre	-8166
▁pew	-8167
istance	-8168
▁modular	-8169
hai	-8170
kok	-8171
▁2015.	-8172
▁chamb	-8173
▁celebrity	-8174
▁bree	-8175
▁stro	-8176
▁lovese	-8177
▁adorable	-8178
▁starting	-8179
usk	-8180
▁rgb	-8181
▁sri	-8182
chell	-8183
itters	-8184
▁brooks	-8185
▁organization	-8186
ulk	-8187
▁afternoon	-8188
▁botanical	-8189
cro	-8190
▁lak	-8191
poster	-8192
▁coated	-8193
▁streets	-8194
mega	-8195
▁init	-8196
▁trio	-8197
▁moscow	-8198
▁returns	-8199
▁drawstring	-8200
fair	-8201
will	-8202
▁2.4	-8203
heast	-8204
▁trench	-8205
▁pitcher	-8206
file	-8207
▁zap	-8208
beaut	-8209
▁quil	-8210
▁2011.	-8211
▁drift	-8212
▁rebel	-8213
▁maternity	-8214
▁applications	-8215
▁pedest	-8216
▁squirrel	-8217
step	-8218
▁tril	-8219
/19	-8220
▁vot	-8221
medium	-8222
▁2017.	-8223
▁rider	-8224
cia	-8225
▁115	-8226
▁walks	-8227
▁vincent	-8228
enh	-8229
▁bil	-8230
▁tokyo	-8231
jew	-8232
▁runs	-8233
▁trap	-8234
ancing	-8235
▁angry	-8236
▁wayne	-8237
▁>	-8238
alia	-8239
▁agric	-8240
▁baltim	-8241
▁linear	-8242
commerce	-8243
▁destroy	-8244
▁transit	-8245
▁armchair	-8246
▁1.6	-8247
▁cnc	-8248
▁bros	-8249
▁tale	-8250
▁bentley	-8251
▁neutral	-8252
▁snowboard	-8253
▁esp	-8254
▁bands	-8255
▁drone	-8256
▁dresser	-8257
▁baltimore	-8258
▁television	-8259
ned	-8260
avan	-8261
omes	-8262
icing	-8263
▁planter	-8264
▁dw	-8265
four	-8266
▁omb	-8267
▁1998	-8268
▁leave	-8269
mil	-8270
mini	-8271
▁000	-8272
▁30,	-8273
▁gat	-8274
▁panc	-8275
▁assess	-8276
▁reasons	-8277
istration	-8278
▁connector	-8279
ки	-8280
ais	-8281
good	-8282
▁calf	-8283
▁took	-8284
▁karen	-8285
▁neighbor	-8286
▁bathrooms	-8287
▁opera	-8288
▁separ	-8289
▁orchid	-8290
▁vanilla	-8291
ahl	-8292
udi	-8293
▁issues	-8294
▁rivers	-8295
mos	-8296
rors	-8297
▁geek	-8298
▁teak	-8299
▁landscaping	-8300
abad	-8301
▁#13	-8302
▁digit	-8303
▁griff	-8304
▁proud	-8305
▁wrangler	-8306
▁1940	-8307
▁largest	-8308
▁asy	-8309
▁weap	-8310
▁scrub	-8311
▁hawaiian	-8312
▁mahogany	-8313
ea	-8314
.25	-8315
eer	-8316
▁orth	-8317
▁cyber	-8318
▁jonathan	-8319
▁recovery	-8320
-50	-8321
fam	-8322
▁51	-8323
▁boe	-8324
▁seats	-8325
▁canopy	-8326
zr	-8327
tem	-8328
▁**	-8329
2013	-8330
fted	-8331
spot	-8332
ucker	-8333
▁hose	-8334
studio	-8335
english	-8336
▁loveseat	-8337
▁friendship	-8338
▁illustrations	-8339
decor	-8340
▁schools	-8341
▁supplier	-8342
▁others	-8343
▁banners	-8344
▁diction	-8345
▁economy	-8346
bug	-8347
rane	-8348
yler	-8349
asting	-8350
▁pk	-8351
club	-8352
▁nit	-8353
plate	-8354
▁parker	-8355
bac	-8356
▁128	-8357
▁dum	-8358
▁18""	-8359
▁3000	-8360
▁chaise	-8361
▁potatoes	-8362
iller	-8363
▁hend	-8364
▁natur	-8365
▁chunky	-8366
▁comfor	-8367
▁floors	-8368
▁wanted	-8369
▁licensed	-8370
▁8-	-8371
hart	-8372
illas	-8373
▁cact	-8374
▁boxer	-8375
▁newsp	-8376
▁missing	-8377
▁rangers	-8378
igur	-8379
ideas	-8380
known	-8381
▁1997	-8382
▁charming	-8383
▁introduc	-8384
▁jacquard	-8385
iker	-8386
ready	-8387
▁beginners	-8388
ivid	-8389
▁sage	-8390
castle	-8391
itzerland	-8392
▁crewneck	-8393
▁snowflake	-8394
ро	-8395
raps	-8396
▁choo	-8397
▁reus	-8398
letter	-8399
▁bonus	-8400
▁montana	-8401
▁incredible	-8402
▁industries	-8403
-02	-8404
iga	-8405
quin	-8406
▁tib	-8407
▁doug	-8408
▁coal	-8409
▁cruiser	-8410
▁carnival	-8411
▁everyone	-8412
add	-8413
bee	-8414
▁53	-8415
oper	-8416
▁bulk	-8417
▁gone	-8418
▁2018.	-8419
▁craig	-8420
▁subaru	-8421
▁performs	-8422
▁bruce	-8423
▁pearls	-8424
▁colourful	-8425
cos	-8426
jun	-8427
▁kom	-8428
▁frig	-8429
atives	-8430
▁willow	-8431
▁horizon	-8432
▁leading	-8433
▁mercury	-8434
hum	-8435
▁#11	-8436
▁29,	-8437
▁miche	-8438
▁advant	-8439
▁heater	-8440
▁written	-8441
▁elevation	-8442
sur	-8443
▁78	-8444
▁due	-8445
▁gives	-8446
▁cleans	-8447
▁gallon	-8448
▁overall	-8449
▁shepherd	-8450
▁teachers	-8451
5)	-8452
imo	-8453
los	-8454
▁apr	-8455
queen	-8456
mobile	-8457
▁marie	-8458
▁muslim	-8459
▁fiction	-8460
▁leaders	-8461
▁reverse	-8462
▁handbags	-8463
▁recording	-8464
▁lilac	-8465
▁tampa	-8466
▁hudson	-8467
▁asymmet	-8468
▁francis	-8469
▁patient	-8470
▁comforter	-8471
▁compression	-8472
▁wit	-8473
▁cadillac	-8474
▁zirconia	-8475
▁independence	-8476
▁tai	-8477
estra	-8478
▁canal	-8479
▁dried	-8480
▁giraffe	-8481
▁purpose	-8482
dan	-8483
▁nex	-8484
▁cave	-8485
▁heights	-8486
▁teenage	-8487
▁economic	-8488
▁monsters	-8489
▁precision	-8490
▁ingredients	-8491
zip	-8492
otta	-8493
cohol	-8494
▁24""	-8495
▁boom	-8496
▁emblem	-8497
▁accident	-8498
▁aquarium	-8499
ktor	-8500
▁vap	-8501
▁goat	-8502
▁donna	-8503
through	-8504
▁patrol	-8505
▁auction	-8506
▁convection	-8507
▁woo	-8508
▁also	-8509
▁reven	-8510
▁flavor	-8511
▁subway	-8512
▁amsterdam	-8513
▁soundtrack	-8514
eco	-8515
spec	-8516
▁1.0	-8517
▁gan	-8518
encer	-8519
iffel	-8520
wheel	-8521
▁covid	-8522
▁graphicriver	-8523
ru	-8524
▁88	-8525
bron	-8526
▁28,	-8527
▁inner	-8528
▁persp	-8529
▁moments	-8530
▁concepts	-8531
vp	-8532
airs	-8533
iate	-8534
▁papers	-8535
▁destination	-8536
▁jol	-8537
▁2012,	-8538
▁categ	-8539
vintage	-8540
warz	-8541
▁stairs	-8542
▁nothing	-8543
▁pirates	-8544
▁nou	-8545
▁oat	-8546
uting	-8547
▁dean	-8548
▁hdmi	-8549
▁vista	-8550
▁cowboy	-8551
▁wilson	-8552
▁builder	-8553
13)	-8554
map	-8555
▁lie	-8556
▁mitt	-8557
▁links	-8558
▁pione	-8559
▁option	-8560
▁spread	-8561
▁citizen	-8562
▁simulator	-8563
tit	-8564
plant	-8565
▁arthur	-8566
16)	-8567
onse	-8568
▁patt	-8569
▁stella	-8570
davidson	-8571
▁deliver	-8572
▁lawrence	-8573
▁reclining	-8574
▁environmental	-8575
▁nm	-8576
650	-8577
▁glac	-8578
▁behav	-8579
▁homme	-8580
▁doodle	-8581
▁alexand	-8582
onge	-8583
inery	-8584
▁couch	-8585
np	-8586
▁plac	-8587
▁named	-8588
▁roger	-8589
▁origin	-8590
▁signal	-8591
▁generator	-8592
▁vr	-8593
▁xmas	-8594
▁monte	-8595
▁shang	-8596
▁defender	-8597
far	-8598
reads	-8599
folio	-8600
▁blur	-8601
▁diary	-8602
▁steak	-8603
▁drinks	-8604
▁initial	-8605
▁é	-8606
aire	-8607
igue	-8608
▁vice	-8609
▁curved	-8610
▁dating	-8611
▁terror	-8612
▁sparkle	-8613
??	-8614
oodles	-8615
▁expedition	-8616
▁microphone	-8617
-24	-8618
▁barbie	-8619
▁ribbed	-8620
▁strategies	-8621
aj	-8622
▁98	-8623
moon	-8624
▁dyn	-8625
▁unve	-8626
lished	-8627
▁chapel	-8628
▁greens	-8629
▁murray	-8630
▁prague	-8631
▁strand	-8632
▁happiness	-8633
ye	-8634
▁prior	-8635
▁yacht	-8636
▁screenshots	-8637
/7	-8638
tz	-8639
18)	-8640
dem	-8641
▁ssd	-8642
▁vic	-8643
▁isle	-8644
▁fifth	-8645
▁sonic	-8646
▁retrie	-8647
alle	-8648
movie	-8649
state	-8650
▁guar	-8651
▁buying	-8652
▁jacobs	-8653
▁packing	-8654
▁connection	-8655
▁#7	-8656
gift	-8657
▁shawl	-8658
▁ethnic	-8659
▁printables	-8660
ulus	-8661
trans	-8662
▁bend	-8663
purple	-8664
▁assassin	-8665
▁switzerland	-8666
lp	-8667
may	-8668
."""	-8669
▁ens	-8670
▁cone	-8671
▁goods	-8672
▁masks	-8673
▁jessica	-8674
iba	-8675
▁reel	-8676
little	-8677
▁arsen	-8678
leather	-8679
▁violin	-8680
▁gradient	-8681
▁chalkboard	-8682
ono	-8683
christmas	-8684
▁announced	-8685
ст	-8686
14)	-8687
▁sean	-8688
▁socket	-8689
▁capitol	-8690
▁chamber	-8691
▁novelty	-8692
▁testing	-8693
▁laminate	-8694
wal	-8695
▁mits	-8696
▁armor	-8697
▁pinback	-8698
▁wardrobe	-8699
alem	-8700
▁gtx	-8701
ampunk	-8702
▁accept	-8703
▁agent	-8704
▁casio	-8705
▁multifun	-8706
▁extensions	-8707
▁silhouettes	-8708
dj	-8709
not	-8710
rett	-8711
▁suff	-8712
▁upon	-8713
▁birch	-8714
▁tartan	-8715
▁garland	-8716
▁oakland	-8717
fy	-8718
nik	-8719
iche	-8720
ushi	-8721
▁gain	-8722
▁warren	-8723
▁blueberry	-8724
▁ku	-8725
▁mes	-8726
▁sho	-8727
smith	-8728
▁index	-8729
▁oscar	-8730
▁charle	-8731
▁greetings	-8732
▁63	-8733
isha	-8734
▁memes	-8735
6-	-8736
_2	-8737
ulu	-8738
▁***	-8739
ibility	-8740
▁astron	-8741
show	-8742
▁hog	-8743
▁mou	-8744
ettle	-8745
▁whale	-8746
▁gratis	-8747
▁hilton	-8748
▁morris	-8749
▁clinton	-8750
▁enchant	-8751
04	-8752
130	-8753
15)	-8754
gel	-8755
▁amb	-8756
ebook	-8757
ijing	-8758
▁steven	-8759
▁engineer	-8760
▁purchase	-8761
▁tapestry	-8762
▁embellished	-8763
▁||	-8764
▁vote	-8765
person	-8766
▁aston	-8767
▁eiffel	-8768
aped	-8769
orence	-8770
ridged	-8771
▁;	-8772
stud	-8773
▁chew	-8774
season	-8775
▁banks	-8776
▁maroon	-8777
▁rachel	-8778
▁hurricane	-8779
ivo	-8780
▁chim	-8781
pieces	-8782
▁fract	-8783
▁peters	-8784
▁leisure	-8785
exp	-8786
brand	-8787
essions	-8788
▁circus	-8789
▁powerful	-8790
note	-8791
▁$10	-8792
tex	-8793
▁pec	-8794
summer	-8795
▁asics	-8796
▁billion	-8797
acher	-8798
▁aged	-8799
▁send	-8800
▁mascot	-8801
▁mustard	-8802
▁tourism	-8803
▁graffiti	-8804
▁schedule	-8805
▁agreement	-8806
eye	-8807
▁ombre	-8808
▁whats	-8809
aid	-8810
lev	-8811
0026	-8812
disc	-8813
ulic	-8814
uted	-8815
▁mink	-8816
igraph	-8817
▁names	-8818
▁scratch	-8819
▁alternate	-8820
umi	-8821
ours	-8822
▁prix	-8823
▁tumbler	-8824
wes	-8825
olia	-8826
omon	-8827
▁rud	-8828
▁chees	-8829
▁weave	-8830
▁barack	-8831
▁catalog	-8832
▁dictionary	-8833
pp	-8834
aba	-8835
uffy	-8836
▁etc	-8837
melon	-8838
▁brands	-8839
▁phones	-8840
▁watching	-8841
dl	-8842
iane	-8843
▁nag	-8844
▁1996	-8845
▁hydro	-8846
▁alpine	-8847
▁collab	-8848
▁norway	-8849
▁chester	-8850
▁positive	-8851
▁strapless	-8852
rene	-8853
▁ira	-8854
▁beth	-8855
portun	-8856
▁repro	-8857
▁glossy	-8858
▁monthly	-8859
▁foldable	-8860
bot	-8861
▁unlock	-8862
▁polarized	-8863
▁convention	-8864
▁innovation	-8865
▁integrated	-8866
▁_	-8867
11)	-8868
iza	-8869
▁robe	-8870
▁reality	-8871
▁dé	-8872
achi	-8873
meal	-8874
▁mik	-8875
▁fleet	-8876
▁worlds	-8877
▁【	-8878
gall	-8879
mary	-8880
▁awd	-8881
▁below	-8882
▁wrest	-8883
▁wright	-8884
▁thought	-8885
▁4)	-8886
coin	-8887
text	-8888
figer	-8889
itched	-8890
▁femin	-8891
▁pregn	-8892
▁rolex	-8893
▁arrest	-8894
▁oriental	-8895
▁reusable	-8896
▁richmond	-8897
▁independent	-8898
hap	-8899
riel	-8900
aukee	-8901
▁macy	-8902
▁accents	-8903
▁alcohol	-8904
▁campbell	-8905
07	-8906
mob	-8907
▁elk	-8908
bling	-8909
▁pros	-8910
▁belly	-8911
▁pewter	-8912
▁tulips	-8913
▁230	-8914
▁voy	-8915
▁nuts	-8916
▁pest	-8917
▁lions	-8918
▁tweed	-8919
▁promotional	-8920
-40	-8921
rim	-8922
enta	-8923
oles	-8924
▁bbc	-8925
▁gala	-8926
▁2013,	-8927
▁jerry	-8928
▁linda	-8929
▁rural	-8930
▁straps	-8931
▁festive	-8932
▁melissa	-8933
▁distance	-8934
▁lettering	-8935
dry	-8936
ref	-8937
▁gur	-8938
▁jen	-8939
igator	-8940
▁fragr	-8941
▁boards	-8942
▁brushes	-8943
▁surprise	-8944
rah	-8945
▁dm	-8946
▁1930	-8947
▁barry	-8948
▁lumin	-8949
▁tracks	-8950
▁kennedy	-8951
----	-8952
▁bing	-8953
▁crab	-8954
▁hers	-8955
▁taste	-8956
▁pyramid	-8957
onn	-8958
oline	-8959
▁stap	-8960
▁bound	-8961
▁chili	-8962
▁filled	-8963
▁nevada	-8964
▁powers	-8965
▁magical	-8966
▁variety	-8967
▁vineyard	-8968
▁steampunk	-8969
▁fotografie	-8970
101	-8971
iqu	-8972
▁dia	-8973
▁kan	-8974
▁renew	-8975
▁basics	-8976
aded	-8977
▁tas	-8978
▁tet	-8979
▁sweden	-8980
▁windsor	-8981
▁florence	-8982
▁calculator	-8983
001	-8984
▁fx	-8985
fect	-8986
uses	-8987
▁nan	-8988
▁spf	-8989
▁meets	-8990
▁taupe	-8991
▁tight	-8992
▁mitchell	-8993
▁tint	-8994
▁leads	-8995
▁taper	-8996
▁vogue	-8997
▁burger	-8998
▁bristol	-8999
▁tourist	-9000
▁hilfiger	-9001
aby	-9002
oco	-9003
▁cem	-9004
▁knob	-9005
gam	-9006
▁ae	-9007
horn	-9008
▁12-	-9009
ibles	-9010
▁realty	-9011
▁douglas	-9012
▁dragons	-9013
▁operation	-9014
▁yorkshire	-9015
▁gingerbread	-9016
▁transportation	-9017
dp	-9018
▁until	-9019
century	-9020
▁burton	-9021
▁themes	-9022
iterrane	-9023
▁beijing	-9024
▁nations	-9025
▁resource	-9026
bad	-9027
ando	-9028
ashed	-9029
▁nova	-9030
▁scre	-9031
▁sons	-9032
▁cylinder	-9033
▁breathable	-9034
\'	-9035
▁mf	-9036
▁320	-9037
▁1969	-9038
▁hedge	-9039
▁keith	-9040
▁individ	-9041
bud	-9042
mix	-9043
▁prest	-9044
▁puppies	-9045
▁necklaces	-9046
320	-9047
ext	-9048
fab	-9049
mac	-9050
sha	-9051
▁emma	-9052
▁aurora	-9053
▁marker	-9054
shoulder	-9055
▁devices	-9056
▁waiting	-9057
▁crescent	-9058
▁editorial	-9059
nn	-9060
19)	-9061
erie	-9062
icut	-9063
▁wwe	-9064
▁verm	-9065
abridged	-9066
▁extended	-9067
▁louisiana	-9068
▁arrangement	-9069
▁77	-9070
▁ian	-9071
▁1995	-9072
▁warranty	-9073
▁db	-9074
umbai	-9075
▁gulf	-9076
▁charms	-9077
▁romper	-9078
▁advance	-9079
▁climate	-9080
▁definition	-9081
ibe	-9082
sim	-9083
▁84	-9084
▁glas	-9085
▁repe	-9086
▁camis	-9087
▁quiet	-9088
▁arsenal	-9089
▁distribution	-9090
swe	-9091
▁lik	-9092
▁sci	-9093
▁haven	-9094
▁rough	-9095
crafted	-9096
▁performing	-9097
▁composition	-9098
mt	-9099
xs	-9100
tod	-9101
▁gop	-9102
▁stores	-9103
▁investment	-9104
rency	-9105
▁tomb	-9106
▁macro	-9107
▁twent	-9108
▁weeks	-9109
▁assault	-9110
▁stanley	-9111
▁vampire	-9112
▁opportun	-9113
140	-9114
cur	-9115
hog	-9116
pel	-9117
anie	-9118
kids	-9119
▁2500	-9120
ubishi	-9121
▁jumbo	-9122
▁diaper	-9123
▁larger	-9124
▁schwarz	-9125
▁headlight	-9126
▁rendering	-9127
▁ses	-9128
▁appe	-9129
▁luck	-9130
▁parka	-9131
▁sticks	-9132
▁dynamic	-9133
▁iceland	-9134
▁sounds	-9135
▁alliance	-9136
▁architectural	-9137
mint	-9138
painted	-9139
▁consider	-9140
▁removable	-9141
kw	-9142
ле	-9143
hop	-9144
▁xr	-9145
isan	-9146
▁#1)	-9147
▁10-	-9148
▁dart	-9149
▁uses	-9150
▁adobe	-9151
▁scent	-9152
▁parties	-9153
▁catholic	-9154
▁seaf	-9155
▁vene	-9156
clipse	-9157
▁status	-9158
▁coasters	-9159
▁#8	-9160
asant	-9161
igree	-9162
▁pint	-9163
▁chand	-9164
▁creat	-9165
▁fixed	-9166
▁mental	-9167
▁heating	-9168
▁shelving	-9169
▁population	-9170
▁hamm	-9171
▁poll	-9172
▁alber	-9173
▁spicy	-9174
▁booster	-9175
▁collins	-9176
▁dressed	-9177
▁several	-9178
▁physical	-9179
▁discovery	-9180
▁4.	-9181
camp	-9182
cart	-9183
cons	-9184
cule	-9185
▁fib	-9186
orrow	-9187
▁juan	-9188
▁recy	-9189
ipedia	-9190
▁merino	-9191
oms	-9192
▁68	-9193
bast	-9194
▁lol	-9195
▁sak	-9196
▁busy	-9197
waukee	-9198
▁comment	-9199
▁backdrop	-9200
▁hydraulic	-9201
▁hg	-9202
bill	-9203
▁eclipse	-9204
▁explore	-9205
▁ukraine	-9206
▁unknown	-9207
▁malaysia	-9208
05	-9209
▁tou	-9210
▁sour	-9211
▁passport	-9212
dev	-9213
▁bog	-9214
▁rol	-9215
blend	-9216
▁cameron	-9217
▁adhesive	-9218
▁kingston	-9219
▁interface	-9220
06	-9221
mani	-9222
travel	-9223
▁monet	-9224
▁myster	-9225
orp	-9226
hole	-9227
▁casc	-9228
▁mate	-9229
▁onyx	-9230
▁dirty	-9231
▁cactus	-9232
▁chance	-9233
▁bangkok	-9234
▁renault	-9235
▁visitors	-9236
▁patterned	-9237
eb	-9238
160	-9239
conn	-9240
edic	-9241
gary	-9242
▁orn	-9243
innati	-9244
▁flare	-9245
▁enough	-9246
▁reflections	-9247
ック	-9248
pix	-9249
▁tl	-9250
▁balm	-9251
▁goose	-9252
iterranean	-9253
▁cul	-9254
▁evo	-9255
▁rattan	-9256
princess	-9257
360	-9258
▁tpu	-9259
▁strat	-9260
▁trick	-9261
▁percent	-9262
▁trilogy	-9263
▁majestic	-9264
09	-9265
-1/2	-9266
▁benj	-9267
▁units	-9268
▁reclaim	-9269
▁circular	-9270
▁mitsubishi	-9271
dw	-9272
▁sche	-9273
▁coupons	-9274
▁removal	-9275
▁finished	-9276
▁makeover	-9277
▁listingid	-9278
ucle	-9279
haust	-9280
ecoming	-9281
▁lawyer	-9282
▁headboard	-9283
tie	-9284
▁cort	-9285
▁luke	-9286
idaire	-9287
▁flour	-9288
fu	-9289
wire	-9290
leigh	-9291
where	-9292
▁meaning	-9293
▁overview	-9294
▁cuis	-9295
ocross	-9296
▁memories	-9297
tub	-9298
▁gon	-9299
▁given	-9300
▁fender	-9301
▁lotion	-9302
▁reference	-9303
iar	-9304
▁4:	-9305
ennis	-9306
ishop	-9307
▁bracket	-9308
▁regional	-9309
▁catherine	-9310
rr	-9311
▁og	-9312
▁cel	-9313
▁kol	-9314
stery	-9315
▁films	-9316
▁architects	-9317
▁62	-9318
mable	-9319
▁cinc	-9320
▁aaron	-9321
▁goals	-9322
▁omega	-9323
▁snowy	-9324
▁delight	-9325
▁tracker	-9326
▁navigation	-9327
/2012	-9328
digital	-9329
▁gardening	-9330
ternal	-9331
▁luxur	-9332
▁biscuit	-9333
▁cufflinks	-9334
▁passenger	-9335
bet	-9336
oty	-9337
▁cp	-9338
▁tf	-9339
cook	-9340
speed	-9341
▁blake	-9342
▁explos	-9343
▁studded	-9344
▁frigidaire	-9345
photographer	-9346
ecca	-9347
-2014	-9348
▁mumbai	-9349
▁eg	-9350
ummies	-9351
▁glory	-9352
▁larry	-9353
▁beatles	-9354
▁concent	-9355
▁durable	-9356
▁hexagon	-9357
▁gn	-9358
▁ppt	-9359
eries	-9360
ilion	-9361
ampton	-9362
▁basin	-9363
▁cluster	-9364
▁beginning	-9365
-2-	-9366
adi	-9367
▁7-	-9368
cany	-9369
▁ana	-9370
▁hound	-9371
▁liner	-9372
▁tyler	-9373
▁invite	-9374
▁owners	-9375
▁reebok	-9376
▁georget	-9377
▁flamingo	-9378
▁dispenser	-9379
rat	-9380
squ	-9381
▁chase	-9382
▁sheath	-9383
roe	-9384
two	-9385
▁sx	-9386
cery	-9387
▁islamic	-9388
▁relaxed	-9389
▁stencil	-9390
lake	-9391
▁cay	-9392
▁bulbs	-9393
▁jamie	-9394
▁packs	-9395
▁parks	-9396
▁quant	-9397
▁scans	-9398
▁kawaii	-9399
▁internal	-9400
▁lc	-9401
▁gap	-9402
first	-9403
inity	-9404
▁scall	-9405
▁spaces	-9406
▁disease	-9407
db	-9408
dm	-9409
图库	-9410
eted	-9411
▁7""	-9412
▁hipp	-9413
▁hugh	-9414
▁quin	-9415
▁gates	-9416
▁pioneer	-9417
▁sisters	-9418
▁smoking	-9419
▁clearance	-9420
▁mandatory	-9421
▁watermelon	-9422
9.	-9423
▁kw	-9424
▁oc	-9425
▁für	-9426
▁superstar	-9427
uri	-9428
▁ai	-9429
etime	-9430
▁adop	-9431
▁drama	-9432
▁normal	-9433
▁dollars	-9434
▁superior	-9435
スト	-9436
12)	-9437
▁(7	-9438
otto	-9439
iphone	-9440
▁animated	-9441
▁spotlight	-9442
▁underwater	-9443
▁6""	-9444
▁kend	-9445
▁nancy	-9446
▁mosque	-9447
▁scenes	-9448
▁yankees	-9449
▁chronicles	-9450
▁wheelchair	-9451
▁championships	-9452
▁mediterranean	-9453
▁图库	-9454
oral	-9455
▁ion	-9456
▁average	-9457
▁playoff	-9458
▁gameplay	-9459
▁effective	-9460
▁continental	-9461
oil	-9462
▁gir	-9463
▁casa	-9464
▁coil	-9465
▁neil	-9466
▁trav	-9467
▁accommod	-9468
▁connecticut	-9469
rio	-9470
uly	-9471
▁nr	-9472
bath	-9473
cool	-9474
type	-9475
▁poo	-9476
inations	-9477
▁colonial	-9478
▁politics	-9479
▁4.0	-9480
sport	-9481
▁tights	-9482
diy	-9483
ablo	-9484
▁evans	-9485
▁matter	-9486
▁identity	-9487
▁portfolio	-9488
fan	-9489
▁5.	-9490
-199	-9491
▁rene	-9492
▁autog	-9493
▁philos	-9494
▁falling	-9495
▁winners	-9496
▁wellness	-9497
▁household	-9498
▁cincinnati	-9499
isb	-9500
uan	-9501
ippi	-9502
ollo	-9503
▁beam	-9504
▁clinic	-9505
lend	-9506
▁cuc	-9507
▁sax	-9508
health	-9509
▁emily	-9510
▁rapid	-9511
▁teams	-9512
▁abandon	-9513
▁married	-9514
▁spinach	-9515
▁employee	-9516
sia	-9517
atia	-9518
iang	-9519
▁saints	-9520
▁balcony	-9521
▁exhaust	-9522
▁laurent	-9523
▁silverado	-9524
▁́	-9525
tre	-9526
azed	-9527
▁pud	-9528
▁dove	-9529
▁exotic	-9530
▁benjamin	-9531
▁branches	-9532
08	-9533
bas	-9534
▁benn	-9535
▁chino	-9536
working	-9537
▁answers	-9538
▁dishwash	-9539
comp	-9540
▁num	-9541
▁hemp	-9542
▁berries	-9543
▁basement	-9544
▁marshall	-9545
▁selected	-9546
cb	-9547
▁seg	-9548
▁guns	-9549
▁kara	-9550
▁quot	-9551
▁falcon	-9552
▁swatch	-9553
▁washed	-9554
▁whiskey	-9555
week	-9556
▁mcl	-9557
▁bren	-9558
▁pave	-9559
rought	-9560
▁adapt	-9561
▁columbus	-9562
▁portraits	-9563
ained	-9564
▁bake	-9565
▁sort	-9566
▁singh	-9567
▁favour	-9568
▁napster	-9569
eu	-9570
ит	-9571
eca	-9572
▁rx	-9573
like	-9574
▁gad	-9575
shoot	-9576
▁rating	-9577
▁province	-9578
▁attractive	-9579
▁caf	-9580
▁ner	-9581
ansion	-9582
▁grapes	-9583
▁charity	-9584
▁related	-9585
▁railroad	-9586
▁cardboard	-9587
▁documents	-9588
▁eyeglasses	-9589
wi	-9590
▁dale	-9591
▁sides	-9592
▁galvan	-9593
quarters	-9594
105	-9595
pie	-9596
tur	-9597
▁3)	-9598
▁reind	-9599
▁toast	-9600
▁sponge	-9601
▁cameras	-9602
▁creation	-9603
cape	-9604
gray	-9605
lamp	-9606
▁zig	-9607
arrow	-9608
▁fasc	-9609
▁java	-9610
▁reed	-9611
shaped	-9612
▁jewish	-9613
▁feeding	-9614
vy	-9615
-03	-9616
-04	-9617
▁sep	-9618
▁silent	-9619
▁circles	-9620
▁improve	-9621
▁beverage	-9622
▁composite	-9623
▁gathering	-9624
rip	-9625
cing	-9626
iere	-9627
oker	-9628
▁pou	-9629
▁hide	-9630
allion	-9631
▁crist	-9632
▁recogn	-9633
▁wizard	-9634
▁haircut	-9635
▁upgrade	-9636
cats	-9637
▁vik	-9638
▁indic	-9639
▁schol	-9640
▁advice	-9641
▁poland	-9642
▁milwaukee	-9643
kind	-9644
custom	-9645
▁occup	-9646
ologies	-9647
▁religion	-9648
▁(9	-9649
▁vend	-9650
▁teles	-9651
▁tulip	-9652
▁burner	-9653
aho	-9654
bum	-9655
▁jur	-9656
ittee	-9657
▁clash	-9658
▁answer	-9659
▁towards	-9660
▁coloured	-9661
▁orchestra	-9662
aph	-9663
bod	-9664
eto	-9665
lit	-9666
▁ris	-9667
fiber	-9668
ouses	-9669
▁tide	-9670
burger	-9671
▁changes	-9672
▁closure	-9673
▁families	-9674
▁hampshire	-9675
-60	-9676
esco	-9677
build	-9678
stage	-9679
▁rosa	-9680
▁herbs	-9681
▁sites	-9682
▁boeing	-9683
▁camper	-9684
▁citrus	-9685
▁export	-9686
▁couples	-9687
▁broadway	-9688
buy	-9689
▁ks	-9690
flix	-9691
▁pug	-9692
▁malt	-9693
▁calls	-9694
▁creamy	-9695
▁?	-9696
▁stu	-9697
▁rule	-9698
▁sacred	-9699
▁scores	-9700
mhz	-9701
miss	-9702
▁forg	-9703
▁hugo	-9704
▁parf	-9705
▁sett	-9706
▁bones	-9707
▁debut	-9708
▁almost	-9709
▁freder	-9710
▁mineral	-9711
▁ef	-9712
ayer	-9713
▁asc	-9714
▁confir	-9715
▁surviv	-9716
▁tomorrow	-9717
gran	-9718
mine	-9719
▁wow	-9720
cream	-9721
creen	-9722
iumph	-9723
▁phot	-9724
▁cemet	-9725
写真	-9726
imm	-9727
▁tat	-9728
▁bapt	-9729
▁cove	-9730
▁talent	-9731
▁possible	-9732
▁instruments	-9733
oro	-9734
ician	-9735
▁towels	-9736
▁cosmetics	-9737
▁worldwide	-9738
▁67	-9739
ardi	-9740
dess	-9741
▁1967	-9742
vector	-9743
▁influ	-9744
▁dancer	-9745
▁lenses	-9746
▁thanks	-9747
▁archives	-9748
▁techniques	-9749
zi	-9750
▁gw	-9751
pler	-9752
▁ads	-9753
woven	-9754
▁nose	-9755
▁ston	-9756
▁epson	-9757
▁avatar	-9758
▁babies	-9759
▁crisis	-9760
▁objects	-9761
▁perfume	-9762
▁response	-9763
▁understanding	-9764
othy	-9765
▁motif	-9766
eration	-9767
▁crocod	-9768
▁calligraph	-9769
▁healthcare	-9770
!)	-9771
220	-9772
gow	-9773
final	-9774
▁1994	-9775
▁fame	-9776
▁ugly	-9777
online	-9778
▁sconce	-9779
▁textile	-9780
mr	-9781
asha	-9782
▁170	-9783
beach	-9784
▁cens	-9785
▁dump	-9786
▁nucle	-9787
▁blooming	-9788
▁fireworks	-9789
▁kab	-9790
▁ages	-9791
▁glacier	-9792
▁blossoms	-9793
▁enjoying	-9794
ete	-9795
soc	-9796
▁($	-9797
▁kas	-9798
▁died	-9799
▁femme	-9800
▁gowns	-9801
▁speak	-9802
▁grande	-9803
▁tricks	-9804
▁на	-9805
anti	-9806
child	-9807
▁codes	-9808
▁penny	-9809
▁sweep	-9810
▁mothers	-9811
▁montreal	-9812
▁reindeer	-9813
▁shanghai	-9814
▁reflective	-9815
▁wp	-9816
-2016	-9817
ecake	-9818
▁pops	-9819
▁tutu	-9820
▁moose	-9821
▁speaking	-9822
▁superhero	-9823
vac	-9824
asis	-9825
boro	-9826
▁gov	-9827
▁oun	-9828
ately	-9829
▁alle	-9830
▁bach	-9831
▁dior	-9832
▁childrens	-9833
▁celebrating	-9834
airo	-9835
▁#14	-9836
▁mey	-9837
▁roast	-9838
▁wrong	-9839
▁damage	-9840
▁aviator	-9841
▁biggest	-9842
lings	-9843
▁dice	-9844
▁nich	-9845
▁slice	-9846
issippi	-9847
▁voltage	-9848
▁restaurants	-9849
6.	-9850
▁moc	-9851
shield	-9852
▁retire	-9853
▁nashville	-9854
▁accounting	-9855
▁charleston	-9856
-05	-9857
▁acer	-9858
▁alone	-9859
▁essays	-9860
▁refuge	-9861
▁viking	-9862
▁crimson	-9863
▁strings	-9864
▁knowledge	-9865
ctv	-9866
iot	-9867
peg	-9868
▁hs	-9869
▁rag	-9870
▁zod	-9871
essel	-9872
▁fork	-9873
prints	-9874
▁damen	-9875
▁reason	-9876
▁started	-9877
▁relaxing	-9878
▁homecoming	-9879
▁69	-9880
inar	-9881
▁gin	-9882
▁ost	-9883
▁iraq	-9884
▁judge	-9885
▁regard	-9886
▁sailor	-9887
▁electronics	-9888
▁sustainable	-9889
▁€	-9890
_00	-9891
dler	-9892
▁nad	-9893
▁chile	-9894
▁matrix	-9895
▁pebble	-9896
▁turtles	-9897
▁cranberry	-9898
▁upholstery	-9899
▁interesting	-9900
▁nh	-9901
▁lever	-9902
▁vegetarian	-9903
cou	-9904
-300	-9905
ateau	-9906
▁buzz	-9907
▁tong	-9908
▁bikes	-9909
▁knock	-9910
▁pierre	-9911
▁twisted	-9912
▁literature	-9913
▁wristwatch	-9914
eda	-9915
tom	-9916
airy	-9917
cycl	-9918
▁kon	-9919
▁luxe	-9920
▁pile	-9921
▁loafers	-9922
▁surgery	-9923
▁retriever	-9924
6,	-9925
fm	-9926
iah	-9927
▁650	-9928
▁cho	-9929
▁hdd	-9930
▁1968	-9931
▁gogh	-9932
single	-9933
▁guess	-9934
▁recon	-9935
▁reduc	-9936
▁sofas	-9937
▁turner	-9938
▁gabriel	-9939
▁decorate	-9940
▁centerpiece	-9941
)-	-9942
.75	-9943
utt	-9944
osis	-9945
▁soy	-9946
bound	-9947
▁demo	-9948
former	-9949
▁diagn	-9950
▁grizz	-9951
▁studs	-9952
▁funeral	-9953
▁grocery	-9954
▁holster	-9955
▁humming	-9956
▁remodel	-9957
▁external	-9958
▁spectrum	-9959
ibu	-9960
▁vod	-9961
ading	-9962
ecast	-9963
▁plank	-9964
▁committee	-9965
▁companies	-9966
▁neighborhood	-9967
▁vt	-9968
oster	-9969
otten	-9970
▁tees	-9971
▁econom	-9972
▁kettle	-9973
▁newspaper	-9974
ao	-9975
sr	-9976
▁dx	-9977
alen	-9978
▁ran	-9979
▁helm	-9980
▁iris	-9981
▁peel	-9982
▁merch	-9983
▁stove	-9984
▁mansion	-9985
▁telephone	-9986
reh	-9987
▁roots	-9988
▁pajamas	-9989
▁revealed	-9990
▁workbook	-9991
115	-9992
▁pp	-9993
▁brig	-9994
▁elvis	-9995
▁kenya	-9996
▁smash	-9997
▁tripod	-9998
▁gingham	-9999
▁singing	-10000
▁recorder	-10001
▁amg	-10002
▁mama	-10003
▁bakery	-10004
▁fiesta	-10005
▁oliver	-10006
▁provided	-10007
inth	-10008
▁kau	-10009
lines	-10010
▁blow	-10011
▁lean	-10012
▁greater	-10013
▁disposable	-10014
▁instructions	-10015
dou	-10016
▁$5	-10017
▁5:	-10018
▁bj	-10019
▁kum	-10020
space	-10021
▁cogn	-10022
▁cray	-10023
▁wang	-10024
▁beats	-10025
▁latin	-10026
▁wants	-10027
country	-10028
▁cigare	-10029
▁mirrors	-10030
▁luxurious	-10031
▁patriotic	-10032
▁comparison	-10033
kh	-10034
istr	-10035
yson	-10036
▁quiz	-10037
▁scout	-10038
▁twins	-10039
▁bradley	-10040
▁sleeper	-10041
▁meditation	-10042
bol	-10043
yth	-10044
ilet	-10045
▁tol	-10046
anche	-10047
peare	-10048
spring	-10049
▁newport	-10050
▁styling	-10051
▁approved	-10052
▁responsive	-10053
▁mississippi	-10054
ар	-10055
oak	-10056
▁sb	-10057
▁liz	-10058
▁bure	-10059
▁bowls	-10060
▁mould	-10061
▁recre	-10062
▁scenic	-10063
▁freezer	-10064
▁diameter	-10065
▁weekender	-10066
▁handcrafted	-10067
ол	-10068
jay	-10069
tag	-10070
▁lx	-10071
oche	-10072
▁dix	-10073
burst	-10074
▁torch	-10075
▁trash	-10076
▁analyt	-10077
▁andreas	-10078
▁serious	-10079
▁triumph	-10080
▁residence	-10081
coli	-10082
▁zara	-10083
center	-10084
▁2019,	-10085
▁dates	-10086
▁clover	-10087
▁newest	-10088
▁austria	-10089
▁someone	-10090
▁boyfriend	-10091
▁middleton	-10092
---	-10093
sse	-10094
▁nz	-10095
▁expo	-10096
▁vern	-10097
usalem	-10098
▁clips	-10099
▁serum	-10100
▁gourmet	-10101
▁keepsake	-10102
▁autographed	-10103
ffee	-10104
sale	-10105
▁nwt	-10106
▁(100	-10107
▁earl	-10108
▁glad	-10109
▁went	-10110
▁commons	-10111
▁category	-10112
▁amplifier	-10113
gre	-10114
yan	-10115
base	-10116
▁5.5	-10117
▁1900	-10118
▁cruz	-10119
anding	-10120
▁bryan	-10121
▁tibet	-10122
▁binder	-10123
▁assessment	-10124
wp	-10125
▁]	-10126
%20	-10127
▁oy	-10128
▁lbs	-10129
▁seag	-10130
▁feathers	-10131
▁northwest	-10132
▁spiritual	-10133
▁description	-10134
▁headquarters	-10135
cell	-10136
olas	-10137
fruit	-10138
▁bees	-10139
▁beetle	-10140
▁farmer	-10141
▁eyewear	-10142
▁cemetery	-10143
7.	-10144
psy	-10145
▁25+	-10146
ively	-10147
shock	-10148
stool	-10149
▁1988	-10150
ometry	-10151
▁congr	-10152
▁persian	-10153
▁increase	-10154
▁snowflakes	-10155
south	-10156
▁fran	-10157
▁lose	-10158
▁saga	-10159
▁maver	-10160
▁direction	-10161
olla	-10162
▁8.5	-10163
▁sox	-10164
-2013	-10165
▁fond	-10166
▁guests	-10167
▁robinson	-10168
▁photographs	-10169
aghe	-10170
▁911	-10171
▁ern	-10172
▁tarot	-10173
▁moroccan	-10174
▁olympics	-10175
▁conversion	-10176
lm	-10177
102	-10178
180	-10179
eaux	-10180
▁ties	-10181
▁drives	-10182
▁halter	-10183
▁electro	-10184
▁vitamin	-10185
▁instrument	-10186
lla	-10187
non	-10188
unted	-10189
▁1965	-10190
▁saus	-10191
▁soda	-10192
▁capri	-10193
▁ruins	-10194
▁alfred	-10195
▁harrison	-10196
▁converter	-10197
▁dishwasher	-10198
▁г	-10199
▁dk	-10200
ogen	-10201
▁sushi	-10202
▁brewing	-10203
/200	-10204
artha	-10205
enter	-10206
▁foss	-10207
▁kang	-10208
▁walt	-10209
▁garnet	-10210
▁norman	-10211
▁chestnut	-10212
bec	-10213
alsa	-10214
stra	-10215
▁emo	-10216
▁thorn	-10217
▁improv	-10218
▁herring	-10219
▁trouble	-10220
▁whatsapp	-10221
▁operations	-10222
▁properties	-10223
▁79	-10224
▁92	-10225
glan	-10226
▁5.0	-10227
▁dayton	-10228
ulations	-10229
▁programs	-10230
▁unabridged	-10231
pads	-10232
eware	-10233
▁1966	-10234
▁guid	-10235
▁jars	-10236
▁roth	-10237
strong	-10238
▁apply	-10239
▁ships	-10240
▁barber	-10241
▁favors	-10242
▁listen	-10243
▁monoch	-10244
▁trailers	-10245
▁residents	-10246
edo	-10247
helf	-10248
ilar	-10249
▁aus	-10250
▁dusk	-10251
▁lect	-10252
▁relay	-10253
▁folder	-10254
▁reveal	-10255
▁zodiac	-10256
▁domestic	-10257
▁occasion	-10258
▁tm	-10259
gram	-10260
hawk	-10261
olds	-10262
▁ply	-10263
▁1972	-10264
▁cane	-10265
▁income	-10266
▁ronald	-10267
▁typography	-10268
ku	-10269
tic	-10270
ifty	-10271
audio	-10272
stown	-10273
▁kyle	-10274
▁armani	-10275
▁presented	-10276
-06	-10277
mich	-10278
▁sah	-10279
▁apollo	-10280
▁diving	-10281
▁expect	-10282
▁dynasty	-10283
▁forecast	-10284
▁kod	-10285
▁rapt	-10286
▁crock	-10287
▁dolce	-10288
▁forms	-10289
▁onion	-10290
▁ornate	-10291
▁random	-10292
▁recomm	-10293
▁tunnel	-10294
▁suitcase	-10295
▁isometric	-10296
▁#9	-10297
▁rm	-10298
/8""	-10299
rine	-10300
inged	-10301
quest	-10302
▁avoc	-10303
▁chen	-10304
▁turb	-10305
▁worn	-10306
▁wynd	-10307
▁julie	-10308
▁retreat	-10309
kar	-10310
▁isa	-10311
▁lor	-10312
phere	-10313
▁acura	-10314
▁coats	-10315
▁seren	-10316
▁colomb	-10317
▁catcher	-10318
▁shelter	-10319
▁bookmark	-10320
▁filigree	-10321
▁supplement	-10322
10)	-10323
▁tt	-10324
gets	-10325
imes	-10326
court	-10327
▁drew	-10328
school	-10329
▁walmart	-10330
▁softball	-10331
lov	-10332
cake	-10333
make	-10334
birds	-10335
▁ruth	-10336
▁cobra	-10337
▁spons	-10338
▁filling	-10339
▁governor	-10340
▁reclaimed	-10341
▁recycling	-10342
▁7.5	-10343
▁tanz	-10344
▁iconic	-10345
▁stroller	-10346
▁engraving	-10347
▁wellington	-10348
bes	-10349
▁iso	-10350
happy	-10351
▁gest	-10352
▁pots	-10353
▁rook	-10354
▁marqu	-10355
▁noise	-10356
▁burlap	-10357
▁reports	-10358
▁cushions	-10359
▁pumpkins	-10360
▁«	-10361
▁ivy	-10362
▁ears	-10363
▁stag	-10364
family	-10365
▁opens	-10366
▁scotch	-10367
▁welding	-10368
▁infrared	-10369
▁principles	-10370
▁$1	-10371
▁iz	-10372
▁1989	-10373
▁disk	-10374
street	-10375
▁athens	-10376
▁capsules	-10377
▁expansion	-10378
▁jerusalem	-10379
▁corporation	-10380
▁relationship	-10381
amaz	-10382
atin	-10383
▁caval	-10384
▁eyesh	-10385
▁wides	-10386
▁prepare	-10387
▁spinner	-10388
▁editable	-10389
▁abandoned	-10390
▁batteries	-10391
▁shakespeare	-10392
tro	-10393
fare	-10394
uals	-10395
ivals	-10396
▁coque	-10397
▁symph	-10398
▁facing	-10399
▁parfum	-10400
▁played	-10401
▁treasures	-10402
▁330	-10403
▁550	-10404
▁arn	-10405
avirus	-10406
isbane	-10407
▁kraft	-10408
▁jeremy	-10409
▁monarch	-10410
▁catering	-10411
▁profession	-10412
ör	-10413
▁aa	-10414
empt	-10415
lete	-10416
unes	-10417
▁8""	-10418
▁darkness	-10419
/15	-10420
▁wii	-10421
▁alert	-10422
aghetti	-10423
▁netflix	-10424
▁cheesecake	-10425
▁256	-10426
▁1964	-10427
▁vegg	-10428
▁crate	-10429
▁appart	-10430
▁oatmeal	-10431
▁km	-10432
rant	-10433
wise	-10434
▁areas	-10435
natural	-10436
▁whisky	-10437
▁rocking	-10438
▁candidate	-10439
nite	-10440
sson	-10441
redit	-10442
▁duch	-10443
▁temp	-10444
mingham	-10445
▁rocker	-10446
▁knights	-10447
▁bollywood	-10448
▁chemistry	-10449
▁manufacturing	-10450
.19	-10451
gage	-10452
inav	-10453
irie	-10454
▁#20	-10455
▁fot	-10456
▁sie	-10457
▁jama	-10458
▁wigs	-10459
▁diabet	-10460
▁oakley	-10461
▁sebast	-10462
▁handles	-10463
▁designers	-10464
▁highlight	-10465
▁intelligence	-10466
750	-10467
ply	-10468
bons	-10469
odes	-10470
ulum	-10471
▁locations	-10472
▁playground	-10473
▁»	-10474
▁rr	-10475
flex	-10476
▁helen	-10477
▁demand	-10478
▁loving	-10479
iii	-10480
ango	-10481
held	-10482
▁betty	-10483
▁conce	-10484
▁crocodile	-10485
▁restoration	-10486
nm	-10487
geon	-10488
frame	-10489
▁tory	-10490
inator	-10491
▁scoring	-10492
bay	-10493
isl	-10494
aris	-10495
ernet	-10496
▁boxed	-10497
▁buick	-10498
▁secure	-10499
mare	-10500
▁rav	-10501
ancer	-10502
▁kart	-10503
▁freest	-10504
▁threat	-10505
▁caravan	-10506
▁landmark	-10507
▁commander	-10508
▁religious	-10509
-_	-10510
′′	-10511
icer	-10512
zing	-10513
▁cuts	-10514
▁loved	-10515
▁injury	-10516
▁spencer	-10517
▁pavilion	-10518
8,	-10519
▁365	-10520
▁hank	-10521
▁loan	-10522
▁arrows	-10523
▁butler	-10524
▁millen	-10525
▁croatia	-10526
▁marriott	-10527
▁loo	-10528
▁jets	-10529
▁blast	-10530
▁drain	-10531
▁lapel	-10532
▁lakers	-10533
▁newton	-10534
▁bubbles	-10535
▁biography	-10536
▁transmission	-10537
code	-10538
shaw	-10539
▁kite	-10540
▁invent	-10541
▁wyndham	-10542
▁professor	-10543
3/	-10544
iri	-10545
▁ue	-10546
lane	-10547
books	-10548
porter	-10549
▁bulls	-10550
▁burch	-10551
▁crepe	-10552
▁manor	-10553
▁minor	-10554
▁breeze	-10555
▁carrot	-10556
▁sequins	-10557
-09	-10558
ilding	-10559
irates	-10560
lander	-10561
▁hobby	-10562
▁picks	-10563
▁rosem	-10564
▁slides	-10565
▁nuclear	-10566
▁specific	-10567
-07	-10568
crew	-10569
iera	-10570
▁cbd	-10571
▁raz	-10572
group	-10573
itled	-10574
▁dame	-10575
▁excav	-10576
ilities	-10577
minster	-10578
▁hanger	-10579
▁mathem	-10580
▁poetry	-10581
▁rugged	-10582
▁lottery	-10583
▁refresh	-10584
▁tempered	-10585
▁toilette	-10586
▁hatchback	-10587
▁accommodation	-10588
bm	-10589
deo	-10590
sel	-10591
ストック	-10592
▁skip	-10593
▁shots	-10594
western	-10595
▁buffet	-10596
▁tissue	-10597
▁writer	-10598
▁compreh	-10599
▁fortune	-10600
▁popcorn	-10601
▁beginner	-10602
tan	-10603
▁vf	-10604
knit	-10605
oint	-10606
▁tux	-10607
maids	-10608
▁preser	-10609
▁drivers	-10610
▁farmers	-10611
▁slipper	-10612
▁craftsman	-10613
照片	-10614
▁94	-10615
▁cot	-10616
▁shin	-10617
▁crypt	-10618
▁invis	-10619
▁width	-10620
▁baller	-10621
▁tuscany	-10622
▁broccoli	-10623
▁spaghetti	-10624
▁zel	-10625
acker	-10626
start	-10627
▁gill	-10628
▁writ	-10629
▁colin	-10630
ilation	-10631
▁wolver	-10632
▁coronavirus	-10633
▁ч	-10634
▁74	-10635
acon	-10636
clean	-10637
▁rein	-10638
▁alive	-10639
▁shops	-10640
▁walter	-10641
erk	-10642
▁cx	-10643
opia	-10644
▁(15	-10645
▁stir	-10646
enders	-10647
▁arabic	-10648
▁higher	-10649
▁raglan	-10650
▁eyeshadow	-10651
▁compressor	-10652
tu	-10653
▁·	-10654
-25	-10655
asia	-10656
lift	-10657
▁(3)	-10658
▁kost	-10659
uchsia	-10660
▁booties	-10661
▁tapered	-10662
collection	-10663
▁birmingham	-10664
▁quarterback	-10665
rug	-10666
essa	-10667
ilyn	-10668
lace	-10669
ogne	-10670
▁4.5	-10671
▁guys	-10672
▁mono	-10673
▁spro	-10674
▁lying	-10675
▁rated	-10676
▁archive	-10677
pak	-10678
▁89	-10679
ilia	-10680
mail	-10681
▁6.5	-10682
domin	-10683
icide	-10684
▁chlo	-10685
7,	-10686
storm	-10687
▁bruss	-10688
▁posts	-10689
▁spade	-10690
▁tamil	-10691
▁dishes	-10692
▁router	-10693
▁enlarge	-10694
▁florist	-10695
▁moistur	-10696
▁difference	-10697
▁photographers	-10698
8.	-10699
bott	-10700
▁rex	-10701
▁fiat	-10702
▁gras	-10703
▁diana	-10704
▁diver	-10705
▁mcdon	-10706
▁specs	-10707
▁holders	-10708
▁lithium	-10709
20)	-10710
-2015	-10711
▁shah	-10712
▁till	-10713
olitan	-10714
▁means	-10715
▁magenta	-10716
▁terminal	-10717
inct	-10718
▁hib	-10719
stream	-10720
▁citro	-10721
▁bishop	-10722
▁claude	-10723
▁fellow	-10724
▁tablecloth	-10725
210	-10726
ady	-10727
▁elf	-10728
▁36""	-10729
erness	-10730
▁idaho	-10731
▁newly	-10732
▁oppos	-10733
▁wraps	-10734
▁jogger	-10735
▁reveals	-10736
▁decision	-10737
▁countries	-10738
▁businesswoman	-10739
он	-10740
▁1963	-10741
▁5000	-10742
culent	-10743
pression	-10744
▁spectac	-10745
▁philosoph	-10746
▁wt	-10747
boys	-10748
▁3""	-10749
▁cctv	-10750
▁hate	-10751
▁joan	-10752
▁kirk	-10753
▁prev	-10754
▁sack	-10755
▁2014,	-10756
▁braid	-10757
▁bunch	-10758
▁limit	-10759
▁remove	-10760
▁sharing	-10761
▁brisbane	-10762
▁authority	-10763
▁microfiber	-10764
▁ek	-10765
▁210	-10766
▁fid	-10767
royal	-10768
▁aztec	-10769
▁humor	-10770
▁leonard	-10771
▁newcastle	-10772
uana	-10773
▁gust	-10774
▁lonely	-10775
▁mccart	-10776
▁towers	-10777
business	-10778
▁bitcoin	-10779
mor	-10780
etah	-10781
itis	-10782
▁eva	-10783
asian	-10784
▁meas	-10785
▁wand	-10786
▁wavy	-10787
ically	-10788
▁serve	-10789
▁serial	-10790
▁vienna	-10791
▁graphite	-10792
▁illusion	-10793
▁®	-10794
▁bw	-10795
▁bid	-10796
▁jug	-10797
▁1991	-10798
▁cubs	-10799
▁2010.	-10800
building	-10801
▁calgary	-10802
▁conduct	-10803
▁communications	-10804
/13	-10805
pod	-10806
▁fs	-10807
▁neo	-10808
jewel	-10809
▁pens	-10810
▁sits	-10811
▁teap	-10812
plated	-10813
▁bobby	-10814
▁courty	-10815
▁rotary	-10816
▁artisan	-10817
▁companion	-10818
++	-10819
oly	-10820
▁sg	-10821
ingu	-10822
▁30-	-10823
▁yum	-10824
cases	-10825
north	-10826
▁exit	-10827
▁levi	-10828
▁taxi	-10829
▁vera	-10830
stones	-10831
▁false	-10832
▁marco	-10833
ultural	-10834
▁puzzles	-10835
▁margaret	-10836
▁published	-10837
▁southwest	-10838
▁fp	-10839
▁tb	-10840
/2013	-10841
borne	-10842
▁fluffy	-10843
▁goggles	-10844
▁footwear	-10845
▁motorola	-10846
▁dragonfly	-10847
▁democratic	-10848
film	-10849
▁heated	-10850
▁dummies	-10851
▁peppers	-10852
▁hey	-10853
▁beta	-10854
▁cruc	-10855
▁chrom	-10856
▁hazel	-10857
▁helps	-10858
▁smiley	-10859
▁legging	-10860
▁prairie	-10861
▁squares	-10862
▁creature	-10863
▁greenwich	-10864
▁inspiring	-10865
▁flashlight	-10866
▁1992	-10867
▁garm	-10868
▁pedal	-10869
▁prize	-10870
▁monaco	-10871
▁warner	-10872
▁panther	-10873
▁critical	-10874
▁facility	-10875
▁jefferson	-10876
tek	-10877
comb	-10878
ounce	-10879
steel	-10880
▁1979	-10881
▁dipl	-10882
▁ecol	-10883
▁gods	-10884
▁gore	-10885
▁bezel	-10886
▁bliss	-10887
▁amanda	-10888
▁carlos	-10889
▁napkins	-10890
▁zombies	-10891
▁mushrooms	-10892
▁sparkling	-10893
▁staircase	-10894
▁corp	-10895
▁memph	-10896
▁raven	-10897
▁belgium	-10898
▁markets	-10899
▁cultural	-10900
▁galvanized	-10901
▁dvr	-10902
▁fluid	-10903
▁hutch	-10904
▁mirro	-10905
▁wells	-10906
▁assist	-10907
▁mockup	-10908
▁served	-10909
▁kenneth	-10910
▁miracle	-10911
▁scientific	-10912
▁freestanding	-10913
▁technologies	-10914
pen	-10915
▁vet	-10916
▁revol	-10917
▁brings	-10918
▁harper	-10919
▁haunted	-10920
▁aviation	-10921
▁inverter	-10922
▁motocross	-10923
▁indianapolis	-10924
cp	-10925
ль	-10926
alie	-10927
ashi	-10928
inet	-10929
▁#18	-10930
▁afp	-10931
catch	-10932
▁soil	-10933
▁vita	-10934
aining	-10935
▁backup	-10936
▁sharon	-10937
▁gravestone	-10938
ор	-10939
san	-10940
▁..	-10941
▁#15	-10942
-2012	-10943
icure	-10944
▁ストック	-10945
▁bosch	-10946
▁rogers	-10947
▁earthqu	-10948
▁toddlers	-10949
9,	-10950
▁а	-10951
oque	-10952
▁mop	-10953
encing	-10954
▁sense	-10955
▁barbec	-10956
▁entrep	-10957
▁harvey	-10958
▁squash	-10959
wt	-10960
▁tp	-10961
erto	-10962
ylan	-10963
▁ctw	-10964
▁laf	-10965
▁gratuit	-10966
▁camiseta	-10967
▁reproduction	-10968
flow	-10969
icia	-10970
ocal	-10971
▁(4)	-10972
▁1.2	-10973
▁abu	-10974
▁yos	-10975
illon	-10976
▁1800	-10977
▁dyed	-10978
▁hobo	-10979
▁tilt	-10980
▁whist	-10981
▁mighty	-10982
▁classes	-10983
▁rebecca	-10984
▁request	-10985
▁veterans	-10986
oku	-10987
eder	-10988
▁duc	-10989
words	-10990
▁gosp	-10991
▁pall	-10992
arsity	-10993
▁ferry	-10994
▁editor	-10995
▁havana	-10996
▁frosted	-10997
▁organiz	-10998
▁cordless	-10999
▁autograph	-11000
▁republican	-11001
▁86	-11002
▁87	-11003
▁aim	-11004
rings	-11005
▁dunk	-11006
▁gris	-11007
▁heron	-11008
▁onesie	-11009
▁shares	-11010
▁advantage	-11011
ão	-11012
gus	-11013
▁xx	-11014
▁gaz	-11015
ought	-11016
▁2017,	-11017
▁photog	-11018
▁organza	-11019
▁scallop	-11020
▁handsome	-11021
▁perspective	-11022
5,	-11023
thon	-11024
▁llo	-11025
▁smd	-11026
ulate	-11027
▁dere	-11028
▁trig	-11029
▁behavior	-11030
▁stacking	-11031
▁dangerous	-11032
▁programming	-11033
/14	-11034
jar	-11035
▁bd	-11036
abel	-11037
cano	-11038
uous	-11039
peria	-11040
▁venue	-11041
mediate	-11042
▁fabrics	-11043
▁privacy	-11044
▁61	-11045
▁bn	-11046
▁wwii	-11047
▁islam	-11048
▁lanka	-11049
▁header	-11050
▁glowing	-11051
▁guardian	-11052
▁wikipedia	-11053
▁ia	-11054
▁sul	-11055
▁wag	-11056
stars	-11057
▁dairy	-11058
▁piggy	-11059
▁cannon	-11060
▁essence	-11061
▁painter	-11062
▁bordeaux	-11063
▁spoonflower	-11064
-22	-11065
▁wm	-11066
chin	-11067
▁lem	-11068
▁glue	-11069
▁advis	-11070
▁reneg	-11071
▁gender	-11072
▁seater	-11073
▁magnific	-11074
▁officers	-11075
▁sessions	-11076
▁smoothie	-11077
▁recruitment	-11078
found	-11079
▁depth	-11080
▁doesn	-11081
▁commem	-11082
▁monroe	-11083
▁carriage	-11084
▁appliques	-11085
▁machinery	-11086
▁thousands	-11087
gent	-11088
zone	-11089
▁uae	-11090
▁cure	-11091
▁fallen	-11092
▁olivia	-11093
▁twenty	-11094
▁nigeria	-11095
fb	-11096
ин	-11097
cra	-11098
oca	-11099
▁amd	-11100
▁jav	-11101
enson	-11102
▁hare	-11103
▁pete	-11104
▁yang	-11105
▁paste	-11106
breaker	-11107
▁bailey	-11108
▁pistol	-11109
▁starry	-11110
▁michelin	-11111
\\	-11112
108	-11113
hat	-11114
1200	-11115
layer	-11116
▁cubes	-11117
▁daddy	-11118
▁prada	-11119
▁sanct	-11120
▁slots	-11121
jection	-11122
▁agents	-11123
▁according	-11124
▁processor	-11125
▁succulent	-11126
bin	-11127
fro	-11128
▁pag	-11129
▁bian	-11130
▁rodr	-11131
▁clamp	-11132
▁eddie	-11133
▁belted	-11134
▁blinds	-11135
▁senate	-11136
▁scandinav	-11137
strom	-11138
▁acqu	-11139
▁jill	-11140
▁ellen	-11141
univers	-11142
▁finals	-11143
▁metrop	-11144
▁bernard	-11145
▁bowling	-11146
▁roofing	-11147
▁monochrome	-11148
uka	-11149
pair	-11150
▁daw	-11151
▁deut	-11152
▁reun	-11153
▁worst	-11154
▁(2017)	-11155
▁refill	-11156
▁surrey	-11157
▁hearing	-11158
▁messages	-11159
tour	-11160
▁1/2""	-11161
▁cutout	-11162
▁joshua	-11163
▁luther	-11164
▁swedish	-11165
▁vermont	-11166
▁coaching	-11167
▁confetti	-11168
▁colorblock	-11169
.:	-11170
jer	-11171
▁82	-11172
▁ud	-11173
bear	-11174
ivan	-11175
detail	-11176
ymouth	-11177
▁tread	-11178
▁stools	-11179
▁trying	-11180
▁cardinals	-11181
▁oklahoman	-11182
fw	-11183
це	-11184
sal	-11185
arin	-11186
bies	-11187
▁fen	-11188
▁1975	-11189
▁whip	-11190
izable	-11191
▁immig	-11192
▁noble	-11193
▁congrat	-11194
▁argentina	-11195
▁supporters	-11196
endi	-11197
slip	-11198
▁cir	-11199
▁lucy	-11200
▁katie	-11201
▁tumbl	-11202
▁effort	-11203
▁guides	-11204
▁martha	-11205
▁brandon	-11206
▁cuisine	-11207
▁fixture	-11208
▁poppies	-11209
▁surrounded	-11210
▁countertops	-11211
ный	-11212
▁eos	-11213
▁ktm	-11214
emite	-11215
lined	-11216
▁dear	-11217
▁2020.	-11218
▁habit	-11219
▁tasty	-11220
▁zapat	-11221
▁begins	-11222
▁sesame	-11223
▁titled	-11224
▁carrera	-11225
▁diecast	-11226
▁provide	-11227
▁rhodium	-11228
▁reserved	-11229
▁courtyard	-11230
▁retirement	-11231
▁subscription	-11232
idi	-11233
▁yu	-11234
asse	-11235
auer	-11236
rice	-11237
▁rzr	-11238
mobil	-11239
▁nano	-11240
▁tanks	-11241
orative	-11242
writing	-11243
▁paddle	-11244
▁benefit	-11245
▁killing	-11246
▁impression	-11247
uer	-11248
▁dp	-11249
▁xc	-11250
asso	-11251
stro	-11252
▁1973	-11253
▁gaze	-11254
▁peru	-11255
▁pope	-11256
▁cocoa	-11257
▁census	-11258
▁chauss	-11259
▁forget	-11260
▁sector	-11261
▁selfie	-11262
electric	-11263
▁replace	-11264
▁totally	-11265
▁tailored	-11266
fx	-11267
hang	-11268
itech	-11269
▁ches	-11270
▁marl	-11271
▁float	-11272
▁julia	-11273
▁scorp	-11274
▁bryant	-11275
▁glazed	-11276
▁hipster	-11277
▁controls	-11278
▁mirrored	-11279
▁mccartney	-11280
330	-11281
flip	-11282
ssey	-11283
▁1.8	-11284
▁112	-11285
▁sout	-11286
▁diane	-11287
▁marks	-11288
▁ounce	-11289
▁regal	-11290
▁cement	-11291
▁depict	-11292
▁genius	-11293
hom	-11294
aton	-11295
▁vul	-11296
▁1978	-11297
▁1993	-11298
▁torn	-11299
▁cause	-11300
▁latex	-11301
▁mills	-11302
▁poems	-11303
▁yards	-11304
▁stuart	-11305
▁prevent	-11306
▁showcase	-11307
▁resistance	-11308
▁appartement	-11309
aci	-11310
▁5""	-11311
▁ufc	-11312
model	-11313
▁echo	-11314
▁fotoğ	-11315
classic	-11316
▁sprint	-11317
▁radiator	-11318
▁ea	-11319
▁116	-11320
▁dee	-11321
▁ody	-11322
ingle	-11323
▁16""	-11324
▁lies	-11325
▁heath	-11326
issance	-11327
▁munich	-11328
▁spotted	-11329
▁publishing	-11330
km	-11331
loo	-11332
lou	-11333
chic	-11334
jour	-11335
▁pam	-11336
father	-11337
▁joker	-11338
▁revis	-11339
▁whims	-11340
▁cinder	-11341
▁fuchsia	-11342
▁lobster	-11343
▁fortnite	-11344
▁fotoğraf	-11345
yo	-11346
aler	-11347
▁225	-11348
agers	-11349
▁perth	-11350
▁(2018)	-11351
▁debate	-11352
▁samuel	-11353
▁cheetah	-11354
▁fitting	-11355
▁grammar	-11356
▁wrapping	-11357
ords	-11358
▁cros	-11359
mation	-11360
▁avoid	-11361
▁bureau	-11362
▁ravens	-11363
▁seller	-11364
▁roberts	-11365
▁consumer	-11366
/18	-11367
assy	-11368
muda	-11369
▁105	-11370
ardin	-11371
hound	-11372
▁dare	-11373
iciency	-11374
▁snacks	-11375
▁currency	-11376
▁bru	-11377
▁ole	-11378
▁10""	-11379
▁mong	-11380
▁cobalt	-11381
▁skirts	-11382
▁tufted	-11383
▁physics	-11384
▁fragrance	-11385
2000	-11386
alls	-11387
▁bows	-11388
▁param	-11389
▁salsa	-11390
▁dennis	-11391
▁gasket	-11392
▁nationals	-11393
▁calligraphy	-11394
uler	-11395
▁nec	-11396
▁buddy	-11397
▁jasper	-11398
▁wisdom	-11399
▁bathtub	-11400
▁summary	-11401
▁associated	-11402
▁manufacturers	-11403
ean	-11404
prom	-11405
▁2""	-11406
▁sue	-11407
smart	-11408
▁awak	-11409
▁ends	-11410
▁hulk	-11411
▁commerce	-11412
▁enclosed	-11413
▁releases	-11414
▁nightstand	-11415
aws	-11416
enza	-11417
▁001	-11418
▁vip	-11419
▁cere	-11420
▁sims	-11421
▁wond	-11422
▁arrive	-11423
▁laurel	-11424
▁sunflowers	-11425
▁throughout	-11426
beat	-11427
duce	-11428
▁aaa	-11429
shore	-11430
▁1985	-11431
▁1987	-11432
▁gild	-11433
▁jake	-11434
▁oils	-11435
▁devon	-11436
▁romeo	-11437
▁updated	-11438
▁legendary	-11439
▁pj	-11440
idad	-11441
reds	-11442
▁480	-11443
▁syl	-11444
finder	-11445
▁inaug	-11446
▁wired	-11447
▁teapot	-11448
▁glasgow	-11449
▁afghanistan	-11450
-70	-11451
doc	-11452
opus	-11453
ateur	-11454
▁spart	-11455
▁timer	-11456
▁pantry	-11457
▁attempt	-11458
▁checked	-11459
▁faceted	-11460
▁resumes	-11461
▁customers	-11462
▁hummingbird	-11463
▁(16	-11464
▁rey	-11465
▁fitz	-11466
▁图库照片	-11467
▁dusty	-11468
▁plymouth	-11469
▁thermost	-11470
lia	-11471
sam	-11472
▁ya	-11473
____	-11474
ente	-11475
etic	-11476
othe	-11477
poss	-11478
▁fis	-11479
shoes	-11480
▁1974	-11481
▁flam	-11482
▁hgtv	-11483
▁hitch	-11484
▁notre	-11485
▁riley	-11486
▁artistic	-11487
▁visiting	-11488
▁ш	-11489
mens	-11490
orms	-11491
paul	-11492
▁ein	-11493
▁hear	-11494
▁rout	-11495
▁troy	-11496
mother	-11497
▁tobac	-11498
kitchen	-11499
▁autism	-11500
▁garmin	-11501
▁naples	-11502
▁farming	-11503
▁launched	-11504
▁collectible	-11505
ÿÿ	-11506
oga	-11507
orge	-11508
serv	-11509
udes	-11510
▁karl	-11511
▁humid	-11512
▁oasis	-11513
▁insect	-11514
▁villas	-11515
▁dolphin	-11516
▁duchess	-11517
▁goddess	-11518
▁readers	-11519
▁processing	-11520
kor	-11521
▁ws	-11522
turn	-11523
▁xxl	-11524
▁didn	-11525
▁outs	-11526
athlon	-11527
inders	-11528
recipe	-11529
▁2018,	-11530
▁older	-11531
▁napkin	-11532
detached	-11533
▁avocado	-11534
▁massive	-11535
▁proposal	-11536
▁rosemary	-11537
▁savannah	-11538
▁spiderman	-11539
▁individual	-11540
uh	-11541
aroo	-11542
coon	-11543
euro	-11544
fact	-11545
▁sag	-11546
mouth	-11547
▁tesla	-11548
▁criminal	-11549
▁emirates	-11550
▁athletics	-11551
▁strawberries	-11552
orce	-11553
▁4""	-11554
▁gob	-11555
▁kaz	-11556
alled	-11557
venir	-11558
▁ramp	-11559
▁added	-11560
▁curve	-11561
▁datab	-11562
▁orang	-11563
▁exquis	-11564
vest	-11565
-2017	-11566
▁owls	-11567
▁waff	-11568
▁layers	-11569
▁murphy	-11570
▁palest	-11571
▁similar	-11572
▁mousepads	-11573
▁functional	-11574
▁psychology	-11575
9-	-11576
▁т	-11577
114	-11578
stk	-11579
agus	-11580
wart	-11581
▁kun	-11582
after	-11583
▁embr	-11584
▁edwards	-11585
▁origins	-11586
▁varsity	-11587
▁brussels	-11588
▁constant	-11589
vr	-11590
aint	-11591
udge	-11592
▁edt	-11593
▁cuba	-11594
▁trouser	-11595
▁tutorials	-11596
▁plantation	-11597
bob	-11598
bana	-11599
▁4/4	-11600
elson	-11601
japan	-11602
▁bleu	-11603
▁gull	-11604
▁html	-11605
▁allow	-11606
▁frequ	-11607
▁funky	-11608
▁pairs	-11609
▁scary	-11610
▁surpr	-11611
▁gospel	-11612
▁hedgehog	-11613
ре	-11614
tar	-11615
ucc	-11616
▁83	-11617
▁yo	-11618
greg	-11619
▁joh	-11620
▁wim	-11621
▁aber	-11622
▁mule	-11623
iances	-11624
portra	-11625
▁serie	-11626
▁duffel	-11627
▁bandana	-11628
▁hammock	-11629
▁updates	-11630
▁yosemite	-11631
.'	-11632
-2019	-11633
▁1600	-11634
▁opener	-11635
▁baroque	-11636
-08	-11637
ielder	-11638
▁2016,	-11639
▁nordic	-11640
▁marilyn	-11641
▁tonight	-11642
▁tourists	-11643
▁laboratory	-11644
aud	-11645
iya	-11646
aute	-11647
▁aux	-11648
▁elm	-11649
▁leo	-11650
▁nero	-11651
modern	-11652
▁burst	-11653
▁flask	-11654
▁guild	-11655
▁rogue	-11656
▁sciss	-11657
▁teard	-11658
▁fossil	-11659
▁memphis	-11660
▁patagon	-11661
▁tobacco	-11662
▁managing	-11663
▁enclosure	-11664
▁sebastian	-11665
▁\	-11666
hey	-11667
▁vett	-11668
▁wise	-11669
▁ellis	-11670
▁nathan	-11671
▁seated	-11672
▁shared	-11673
▁leaving	-11674
▁dimensions	-11675
▁underground	-11676
▁transitional	-11677
raz	-11678
alty	-11679
aman	-11680
▁#19	-11681
bucks	-11682
▁1955	-11683
▁grab	-11684
▁neop	-11685
▁supern	-11686
▁constit	-11687
▁certification	-11688
folk	-11689
erole	-11690
▁rash	-11691
opedia	-11692
▁nascar	-11693
▁containers	-11694
▁woodworking	-11695
hc	-11696
fle	-11697
ieh	-11698
/2014	-11699
annon	-11700
ifold	-11701
yards	-11702
▁eden	-11703
▁veil	-11704
▁winn	-11705
▁appet	-11706
▁lloyd	-11707
icester	-11708
▁badges	-11709
▁cattle	-11710
▁cooktop	-11711
▁predict	-11712
▁briefcase	-11713
▁valentino	-11714
-21	-11715
ceed	-11716
urban	-11717
▁1986	-11718
▁curt	-11719
▁extr	-11720
▁lips	-11721
levard	-11722
▁elena	-11723
▁approx	-11724
▁shining	-11725
▁creations	-11726
▁magnificent	-11727
pac	-11728
▁geo	-11729
▁wend	-11730
▁parrot	-11731
▁carving	-11732
▁odyssey	-11733
ographics	-11734
▁pedestal	-11735
0027	-11736
edge	-11737
ipur	-11738
▁$20	-11739
▁obl	-11740
▁yuk	-11741
▁coca	-11742
▁fing	-11743
▁roma	-11744
leneck	-11745
▁coord	-11746
▁foster	-11747
▁shimmer	-11748
▁overlook	-11749
▁checkered	-11750
-3-	-11751
▁nos	-11752
▁mature	-11753
▁reacts	-11754
▁simpson	-11755
▁dramatic	-11756
▁fg	-11757
▁50%	-11758
▁570	-11759
iable	-11760
otype	-11761
▁gymn	-11762
insula	-11763
▁agate	-11764
▁fries	-11765
▁(2019)	-11766
▁flames	-11767
▁porter	-11768
▁powell	-11769
▁turned	-11770
▁pointed	-11771
▁blackout	-11772
▁keychains	-11773
spir	-11774
▁avec	-11775
▁attach	-11776
▁profit	-11777
▁vessel	-11778
▁lighted	-11779
▁wrought	-11780
▁lipstick	-11781
▁preparing	-11782
▁sportsman	-11783
▁newsletter	-11784
bd	-11785
hide	-11786
tors	-11787
chart	-11788
staff	-11789
▁shake	-11790
amarine	-11791
▁challenges	-11792
▁eq	-11793
abis	-11794
▁gund	-11795
braska	-11796
▁stein	-11797
▁clocks	-11798
▁entire	-11799
▁hippie	-11800
blogspot	-11801
▁dodgers	-11802
▁pencils	-11803
▁ministry	-11804
boo	-11805
lat	-11806
pit	-11807
athy	-11808
▁gems	-11809
▁aspen	-11810
▁brave	-11811
▁kerry	-11812
▁whirl	-11813
astered	-11814
▁choker	-11815
▁holmes	-11816
▁shadows	-11817
▁strange	-11818
▁practices	-11819
_3	-11820
ия	-11821
dor	-11822
iso	-11823
lem	-11824
ells	-11825
▁114	-11826
▁das	-11827
▁naz	-11828
raham	-11829
▁fate	-11830
▁lands	-11831
▁adrian	-11832
▁duplex	-11833
▁hunger	-11834
▁ottawa	-11835
▁barbecue	-11836
▁cardinal	-11837
▁georgette	-11838
▁protesters	-11839
▁waterfront	-11840
▁watercolour	-11841
-1-	-11842
acc	-11843
eme	-11844
brew	-11845
pres	-11846
wrap	-11847
▁peg	-11848
▁maui	-11849
▁arcade	-11850
▁puerto	-11851
▁shaker	-11852
istanbul	-11853
▁headphone	-11854
▁townhouse	-11855
▁wilderness	-11856
▁agriculture	-11857
▁conditioning	-11858
pon	-11859
anes	-11860
eeper	-11861
girls	-11862
ewater	-11863
▁shred	-11864
regular	-11865
▁gibson	-11866
▁groups	-11867
▁inspire	-11868
▁sausage	-11869
▁brighton	-11870
▁boulevard	-11871
▁elephants	-11872
▁westminster	-11873
dn	-11874
agle	-11875
▁(11	-11876
▁tuc	-11877
multi	-11878
▁1984	-11879
▁bash	-11880
▁gears	-11881
▁otter	-11882
bedroom	-11883
illustr	-11884
omegran	-11885
▁bachel	-11886
download	-11887
sub	-11888
inea	-11889
▁pes	-11890
▁plot	-11891
▁tahoe	-11892
▁coloss	-11893
▁martial	-11894
▁trumpet	-11895
lu	-11896
▁73	-11897
▁jed	-11898
▁org	-11899
clear	-11900
isher	-11901
▁1976	-11902
▁corps	-11903
▁blanco	-11904
▁experi	-11905
▁pajama	-11906
▁capture	-11907
▁keeping	-11908
▁overlay	-11909
▁davidson	-11910
▁reported	-11911
▁shamrock	-11912
▁analytics	-11913
chy	-11914
sta	-11915
ecker	-11916
▁dumb	-11917
▁lucas	-11918
▁guards	-11919
▁herren	-11920
▁monica	-11921
▁laughing	-11922
▁literacy	-11923
▁washable	-11924
▁medallion	-11925
▁expression	-11926
⠀⠀	-11927
tot	-11928
anas	-11929
odor	-11930
▁fuj	-11931
▁kre	-11932
ugeot	-11933
▁dive	-11934
▁joel	-11935
▁vital	-11936
▁strips	-11937
▁phillip	-11938
▁penguins	-11939
▁souvenir	-11940
▁nightmare	-11941
ahu	-11942
▁()	-11943
hour	-11944
▁pict	-11945
cotton	-11946
▁nepal	-11947
▁pools	-11948
▁mining	-11949
▁tender	-11950
urbished	-11951
▁vibrant	-11952
▁chairman	-11953
▁renegade	-11954
▁measuring	-11955
bh	-11956
▁hc	-11957
1080	-11958
iman	-11959
▁cpu	-11960
▁hdr	-11961
chief	-11962
essed	-11963
▁dach	-11964
credit	-11965
rament	-11966
▁belie	-11967
▁hacks	-11968
▁lebron	-11969
▁require	-11970
▁survivor	-11971
▁billboard	-11972
▁exquisite	-11973
és	-11974
за	-11975
10-	-11976
lass	-11977
▁(24	-11978
atson	-11979
▁flock	-11980
▁logos	-11981
▁trails	-11982
▁barrier	-11983
▁contour	-11984
▁standards	-11985
106	-11986
170	-11987
abul	-11988
mund	-11989
pret	-11990
▁0.5	-11991
-2018	-11992
abled	-11993
grand	-11994
▁idol	-11995
▁maur	-11996
▁pars	-11997
arious	-11998
▁smoky	-11999
▁trout	-12000
▁louise	-12001
▁destiny	-12002
▁highest	-12003
▁outerwear	-12004
▁freshwater	-12005
sf	-12006
▁fj	-12007
▁caul	-12008
▁mesa	-12009
▁remed	-12010
▁shaft	-12011
▁spare	-12012
▁silicon	-12013
▁wyoming	-12014
▁christine	-12015
▁bf	-12016
▁lv	-12017
brow	-12018
▁#16	-12019
▁dna	-12020
▁til	-12021
▁15.6	-12022
▁luna	-12023
▁phon	-12024
▁prod	-12025
ensity	-12026
▁inning	-12027
▁alberta	-12028
▁beaches	-12029
▁coating	-12030
▁jerseys	-12031
▁explosion	-12032
▁invisible	-12033
_-_	-12034
lam	-12035
anson	-12036
iscus	-12037
▁20""	-12038
▁farms	-12039
▁pulse	-12040
▁sally	-12041
▁danish	-12042
▁visits	-12043
▁foliage	-12044
▁elegance	-12045
▁seasonal	-12046
▁casserole	-12047
▁widescreen	-12048
shi	-12049
▁dt	-12050
▁31,	-12051
album	-12052
▁arom	-12053
▁berk	-12054
▁henna	-12055
▁invol	-12056
▁negro	-12057
▁claire	-12058
▁client	-12059
▁blender	-12060
▁invites	-12061
▁branding	-12062
▁geometry	-12063
▁graduate	-12064
▁photographed	-12065
tape	-12066
iston	-12067
▁1971	-12068
▁silen	-12069
michael	-12070
▁angela	-12071
▁calling	-12072
▁feeling	-12073
▁scanner	-12074
▁tortoise	-12075
cab	-12076
keh	-12077
bach	-12078
ilee	-12079
isle	-12080
▁#2)	-12081
organ	-12082
▁blau	-12083
▁butt	-12084
▁finn	-12085
▁kard	-12086
▁wealth	-12087
▁israeli	-12088
▁lifting	-12089
▁backless	-12090
▁concentr	-12091
▁handheld	-12092
▁patagonia	-12093
▁wrestling	-12094
230	-12095
240	-12096
fix	-12097
pent	-12098
blood	-12099
flora	-12100
shell	-12101
▁iced	-12102
▁bills	-12103
▁optic	-12104
▁divine	-12105
▁encycl	-12106
▁envelop	-12107
▁upcoming	-12108
▁aquamarine	-12109
wc	-12110
▁bp	-12111
test	-12112
wool	-12113
▁btu	-12114
▁uss	-12115
istro	-12116
rosse	-12117
▁kash	-12118
▁lent	-12119
▁atmos	-12120
▁elbow	-12121
▁naked	-12122
▁redmi	-12123
▁zelda	-12124
feature	-12125
▁loader	-12126
▁marcus	-12127
▁probab	-12128
▁taiwan	-12129
▁viewed	-12130
▁grandma	-12131
▁computing	-12132
atra	-12133
▁ago	-12134
▁dsl	-12135
india	-12136
▁3500	-12137
▁gren	-12138
▁peek	-12139
▁tung	-12140
▁buggy	-12141
▁devot	-12142
▁kurta	-12143
▁teens	-12144
▁seafood	-12145
mun	-12146
rex	-12147
eria	-12148
▁rico	-12149
▁zinc	-12150
▁lease	-12151
▁spots	-12152
▁terra	-12153
▁vapor	-12154
▁nearly	-12155
▁griffin	-12156
▁helping	-12157
▁morocco	-12158
▁leicester	-12159
▁turtleneck	-12160
▁hq	-12161
▁zu	-12162
▁frag	-12163
office	-12164
▁dylan	-12165
▁logan	-12166
▁syria	-12167
▁dealer	-12168
▁royale	-12169
▁xperia	-12170
▁already	-12171
▁correct	-12172
▁grizzly	-12173
▁desserts	-12174
▁lifetime	-12175
▁pomegran	-12176
▁girlfriend	-12177
▁intelligent	-12178
▁conservation	-12179
▁scandinavian	-12180
▁ou	-12181
enda	-12182
▁coy	-12183
▁gav	-12184
▁ups	-12185
▁eval	-12186
▁mour	-12187
▁shim	-12188
icient	-12189
▁glaze	-12190
▁saudi	-12191
▁verde	-12192
▁worship	-12193
▁lanterns	-12194
▁nebraska	-12195
▁register	-12196
▁roadster	-12197
▁cityscape	-12198
nov	-12199
rod	-12200
onym	-12201
birth	-12202
▁ducks	-12203
▁motel	-12204
▁nouve	-12205
▁nicole	-12206
▁delicate	-12207
.-	-12208
kr	-12209
550	-12210
▁td	-12211
emen	-12212
▁(30	-12213
scrib	-12214
▁least	-12215
▁julian	-12216
▁termin	-12217
▁stacked	-12218
▁motivational	-12219
но	-12220
arf	-12221
obi	-12222
ois	-12223
irty	-12224
▁wer	-12225
▁debt	-12226
▁lone	-12227
▁apart	-12228
▁hansen	-12229
▁kapoor	-12230
▁peugeot	-12231
▁sleeved	-12232
103	-12233
hab	-12234
irk	-12235
▁dos	-12236
▁mcm	-12237
etian	-12238
grain	-12239
▁dang	-12240
▁seah	-12241
french	-12242
▁quint	-12243
▁rookie	-12244
▁borders	-12245
▁stackable	-12246
▁spectacular	-12247
nan	-12248
owe	-12249
▁5'	-12250
feat	-12251
▁1962	-12252
▁1977	-12253
pattern	-12254
sleeved	-12255
▁andrea	-12256
▁auburn	-12257
▁jewels	-12258
▁posing	-12259
▁finally	-12260
▁mounting	-12261
▁closeouts	-12262
▁peninsula	-12263
▁conversation	-12264
▁nt	-12265
2014	-12266
▁miz	-12267
▁coco	-12268
▁lazy	-12269
▁tuna	-12270
▁chateau	-12271
▁injured	-12272
▁istanbul	-12273
▁yellowstone	-12274
▁ку	-12275
ncia	-12276
rots	-12277
▁(50	-12278
▁bis	-12279
▁eur	-12280
▁jub	-12281
▁mole	-12282
▁sang	-12283
▁locom	-12284
▁notice	-12285
ков	-12286
haus	-12287
▁tid	-12288
▁vid	-12289
garden	-12290
intern	-12291
▁crunch	-12292
▁sticky	-12293
▁yogurt	-12294
ordinary	-12295
▁elderly	-12296
▁garbage	-12297
▁timeless	-12298
▁renovation	-12299
▁gd	-12300
▁gsm	-12301
▁ves	-12302
balls	-12303
▁15""	-12304
▁tran	-12305
square	-12306
▁lunar	-12307
▁rates	-12308
▁romney	-12309
▁grinder	-12310
▁screens	-12311
▁hundreds	-12312
▁backpacks	-12313
135	-12314
gee	-12315
las	-12316
lli	-12317
oya	-12318
say	-12319
bild	-12320
kers	-12321
▁(25	-12322
check	-12323
▁paid	-12324
ayette	-12325
▁deere	-12326
▁linked	-12327
▁panama	-12328
▁complet	-12329
▁everett	-12330
▁pontiac	-12331
▁pendants	-12332
▁partnership	-12333
▁axis	-12334
▁fury	-12335
beauty	-12336
bright	-12337
▁derek	-12338
▁duffle	-12339
▁hosting	-12340
▁scholar	-12341
▁seaside	-12342
▁diabetes	-12343
▁moisture	-12344
rif	-12345
ibes	-12346
ryst	-12347
wave	-12348
▁nes	-12349
icity	-12350
level	-12351
sided	-12352
▁14""	-12353
▁kens	-12354
▁lore	-12355
▁maid	-12356
▁mamm	-12357
▁absor	-12358
▁gypsy	-12359
▁python	-12360
▁warmer	-12361
▁airways	-12362
▁patriot	-12363
▁warfare	-12364
▁infinite	-12365
▁symphony	-12366
ws	-12367
▁fb	-12368
wild	-12369
▁#17	-12370
shorts	-12371
▁danny	-12372
▁spook	-12373
▁feeder	-12374
▁piston	-12375
▁superb	-12376
▁cologne	-12377
▁gravity	-12378
▁loading	-12379
▁signing	-12380
720	-12381
hun	-12382
oux	-12383
▁ov	-12384
▁eug	-12385
▁kor	-12386
▁lud	-12387
▁sas	-12388
leton	-12389
▁pecan	-12390
▁charts	-12391
▁easily	-12392
▁sexual	-12393
▁changed	-12394
▁ribbons	-12395
▁choosing	-12396
▁stocking	-12397
▁teardrop	-12398
▁violence	-12399
▁appliances	-12400
▁geographic	-12401
▁illuminated	-12402
vio	-12403
▁6)	-12404
▁93	-12405
▁koh	-12406
▁moz	-12407
▁rit	-12408
atile	-12409
▁cust	-12410
cester	-12411
monton	-12412
pocket	-12413
▁leash	-12414
▁minne	-12415
▁mower	-12416
▁placem	-12417
▁appoint	-12418
▁further	-12419
▁harmony	-12420
▁mclaren	-12421
▁seconds	-12422
▁hydrange	-12423
▁temporary	-12424
▁volunteer	-12425
104	-12426
abs	-12427
▁:)	-12428
orne	-12429
▁onto	-12430
astics	-12431
direct	-12432
▁claim	-12433
▁starr	-12434
gallery	-12435
▁franch	-12436
▁lauder	-12437
▁longer	-12438
▁nativity	-12439
▁employees	-12440
▁listening	-12441
▁111	-12442
▁15-	-12443
▁ist	-12444
fully	-12445
matic	-12446
▁duct	-12447
▁pige	-12448
▁rays	-12449
▁drake	-12450
▁hoops	-12451
▁nexus	-12452
▁factor	-12453
▁ストック写真	-12454
inspired	-12455
▁octopus	-12456
▁bulletin	-12457
▁database	-12458
▁arlington	-12459
▁induction	-12460
▁greenhouse	-12461
▁sweatpants	-12462
123	-12463
uga	-12464
▁91	-12465
inda	-12466
open	-12467
what	-12468
▁biz	-12469
▁nem	-12470
cliff	-12471
▁2.25	-12472
▁elis	-12473
▁moda	-12474
button	-12475
coffee	-12476
▁myers	-12477
colored	-12478
▁lining	-12479
▁opened	-12480
▁oracle	-12481
▁centers	-12482
▁required	-12483
rc	-12484
***	-12485
128	-12486
aware	-12487
▁guil	-12488
▁loom	-12489
▁stur	-12490
▁mommy	-12491
▁users	-12492
▁vault	-12493
jewelry	-12494
▁edible	-12495
▁promise	-12496
▁cannabis	-12497
▁mcdonald	-12498
▁birthstone	-12499
▁fashionable	-12500
▁#:	-12501
▁pd	-12502
farm	-12503
igen	-12504
ovic	-12505
▁jak	-12506
great	-12507
mates	-12508
tober	-12509
▁ethi	-12510
▁shir	-12511
▁2015,	-12512
▁logic	-12513
▁loaded	-12514
▁bermuda	-12515
▁recently	-12516
▁screening	-12517
▁renaissance	-12518
heet	-12519
▁latt	-12520
reneur	-12521
▁crust	-12522
▁rodeo	-12523
▁tests	-12524
abulary	-12525
▁deadly	-12526
▁tagged	-12527
▁bourbon	-12528
▁species	-12529
wallpaper	-12530
▁sideboard	-12531
-35	-12532
-80	-12533
▁6'	-12534
loss	-12535
nies	-12536
acion	-12537
ounter	-12538
xpress	-12539
▁claims	-12540
▁dandel	-12541
▁imagine	-12542
▁methods	-12543
▁surfing	-12544
▁astronaut	-12545
▁statistics	-12546
isi	-12547
cript	-12548
▁ment	-12549
▁burns	-12550
▁inlay	-12551
▁juicy	-12552
▁blooms	-12553
▁groove	-12554
▁locker	-12555
▁smoked	-12556
▁watson	-12557
▁abraham	-12558
▁shopper	-12559
▁cigarette	-12560
▁moonlight	-12561
▁schematic	-12562
▁starbucks	-12563
▁gc	-12564
▁pv	-12565
-001	-12566
apse	-12567
elia	-12568
matt	-12569
oire	-12570
itors	-12571
toddler	-12572
▁melange	-12573
▁absolute	-12574
▁exercises	-12575
▁multimedia	-12576
afp	-12577
zzi	-12578
enne	-12579
cloud	-12580
flash	-12581
guide	-12582
▁stam	-12583
▁ultr	-12584
▁tribe	-12585
personal	-12586
▁nouveau	-12587
▁actually	-12588
▁cleansing	-12589
rin	-12590
tta	-12591
▁tec	-12592
grass	-12593
ienne	-12594
maker	-12595
▁capp	-12596
▁rica	-12597
▁tosh	-12598
▁moves	-12599
▁caught	-12600
▁starts	-12601
▁tackle	-12602
▁muffins	-12603
▁dashboard	-12604
▁philosophy	-12605
wm	-12606
-250	-12607
itas	-12608
lest	-12609
team	-12610
▁420	-12611
▁gif	-12612
▁4000	-12613
▁punj	-12614
otting	-12615
▁meals	-12616
▁paleo	-12617
▁theft	-12618
ignment	-12619
▁domain	-12620
▁sevent	-12621
▁tuxedo	-12622
▁values	-12623
▁include	-12624
▁lacrosse	-12625
ihu	-12626
kah	-12627
▁ng	-12628
iste	-12629
▁hag	-12630
fault	-12631
strap	-12632
▁cauc	-12633
dragon	-12634
▁gross	-12635
▁cannes	-12636
▁saucer	-12637
▁skater	-12638
▁polymer	-12639
▁ruffled	-12640
▁clinical	-12641
▁phillips	-12642
aku	-12643
uno	-12644
gian	-12645
orgh	-12646
▁1.4	-12647
▁сто	-12648
▁amph	-12649
▁bras	-12650
▁hale	-12651
▁maya	-12652
▁sara	-12653
▁confl	-12654
▁detox	-12655
designs	-12656
paragus	-12657
▁breaks	-12658
▁levels	-12659
▁weapon	-12660
▁forming	-12661
▁victims	-12662
lg	-12663
wer	-12664
▁bhk	-12665
▁apex	-12666
▁bast	-12667
▁lynn	-12668
▁shag	-12669
london	-12670
upload	-12671
▁ratings	-12672
▁regency	-12673
▁turning	-12674
▁hibiscus	-12675
▁precious	-12676
▁officials	-12677
▁southeast	-12678
-1.	-12679
▁102	-12680
▁118	-12681
▁cud	-12682
▁zuc	-12683
chini	-12684
▁gilt	-12685
▁bells	-12686
▁dough	-12687
▁handy	-12688
▁rhyth	-12689
estones	-12690
▁wicked	-12691
▁compare	-12692
▁latitude	-12693
▁packages	-12694
▁settings	-12695
▁documentary	-12696
▁infographics	-12697
▁jag	-12698
idian	-12699
liner	-12700
▁hick	-12701
▁norm	-12702
▁toss	-12703
▁cameo	-12704
▁skech	-12705
▁bikini	-12706
▁sublim	-12707
▁pricing	-12708
▁raiders	-12709
▁stampin	-12710
▁anything	-12711
▁compound	-12712
▁spinning	-12713
▁venetian	-12714
▁chaussures	-12715
▁herringbone	-12716
▁pf	-12717
antha	-12718
files	-12719
▁poor	-12720
▁wreck	-12721
special	-12722
▁atomic	-12723
▁camaro	-12724
▁spices	-12725
▁offices	-12726
▁singles	-12727
▁typical	-12728
▁pointing	-12729
▁fisherman	-12730
▁sacrament	-12731
▁countryside	-12732
rt	-12733
hus	-12734
oyd	-12735
bull	-12736
inox	-12737
price	-12738
ricks	-12739
▁raft	-12740
▁tric	-12741
▁lobby	-12742
isation	-12743
▁patric	-12744
▁diffuser	-12745
ло	-12746
▁bs	-12747
▁(14	-12748
▁guit	-12749
iology	-12750
▁folio	-12751
▁razor	-12752
▁homest	-12753
▁petals	-12754
▁subtit	-12755
▁sparrow	-12756
▁magnolia	-12757
▁enchanted	-12758
ctw	-12759
david	-12760
▁alps	-12761
▁emoji	-12762
▁equal	-12763
illance	-12764
▁lagoon	-12765
▁marshm	-12766
▁wander	-12767
▁mortgage	-12768
▁traveler	-12769
▁armstrong	-12770
▁blueprint	-12771
▁ui	-12772
▁yz	-12773
▁upc	-12774
igure	-12775
▁beau	-12776
jacket	-12777
ladesh	-12778
▁ergon	-12779
▁moham	-12780
▁curric	-12781
▁juniors	-12782
▁orchard	-12783
▁scenery	-12784
▁shooter	-12785
▁alligator	-12786
▁hardcover	-12787
woo	-12788
acia	-12789
▁asos	-12790
▁monk	-12791
▁told	-12792
▁unus	-12793
▁alumn	-12794
▁bridg	-12795
▁polic	-12796
▁antiqu	-12797
▁franco	-12798
▁gazebo	-12799
▁orthod	-12800
▁jeffrey	-12801
▁ladybug	-12802
▁trinity	-12803
▁ensemble	-12804
▁sciences	-12805
▁tracking	-12806
▁sensitive	-12807
▁petersburg	-12808
1.0	-12809
▁6.	-12810
inky	-12811
snow	-12812
▁(17	-12813
▁alam	-12814
▁dune	-12815
▁mara	-12816
making	-12817
▁bokeh	-12818
▁spike	-12819
orghini	-12820
▁puffer	-12821
▁freight	-12822
▁retract	-12823
▁pancakes	-12824
▁unlocked	-12825
▁objective	-12826
▁wristband	-12827
▁disneyland	-12828
1/	-12829
fox	-12830
jon	-12831
,...	-12832
diam	-12833
nick	-12834
ondo	-12835
amine	-12836
▁blaz	-12837
▁carte	-12838
▁cuban	-12839
▁leban	-12840
▁sands	-12841
▁mutant	-12842
▁trains	-12843
veillance	-12844
▁starfish	-12845
▁envelopes	-12846
▁earthquake	-12847
▁excellence	-12848
2/	-12849
agh	-12850
vie	-12851
▁215	-12852
▁pea	-12853
hurst	-12854
▁emper	-12855
▁shear	-12856
▁drying	-12857
▁listed	-12858
▁savage	-12859
▁courage	-12860
▁veteran	-12861
cu	-12862
▁bk	-12863
▁nub	-12864
▁ops	-12865
▁cyan	-12866
▁sick	-12867
drawer	-12868
▁alley	-12869
▁kayak	-12870
▁blades	-12871
▁imagen	-12872
▁petrol	-12873
▁podium	-12874
▁daytona	-12875
▁noodles	-12876
▁buddhist	-12877
▁developer	-12878
▁stretched	-12879
▁minneapolis	-12880
002	-12881
kal	-12882
oba	-12883
aken	-12884
doll	-12885
gain	-12886
iott	-12887
rail	-12888
▁1""	-12889
chang	-12890
itory	-12891
stain	-12892
athlet	-12893
ologie	-12894
▁reads	-12895
▁bumble	-12896
▁splend	-12897
▁stroke	-12898
▁indians	-12899
▁millenn	-12900
▁skechers	-12901
▁stitched	-12902
▁destroyed	-12903
▁louisville	-12904
cru	-12905
elve	-12906
erne	-12907
▁ort	-12908
avieh	-12909
chain	-12910
champ	-12911
▁atom	-12912
▁sash	-12913
▁lambs	-12914
▁browns	-12915
▁collaps	-12916
▁builders	-12917
▁potential	-12918
▁remodeling	-12919
▁smartwatch	-12920
ahua	-12921
alet	-12922
pets	-12923
▁512	-12924
▁moor	-12925
▁seals	-12926
▁wound	-12927
▁mantel	-12928
▁saying	-12929
▁sheriff	-12930
▁edmonton	-12931
▁elections	-12932
▁exploring	-12933
▁strategic	-12934
▁efficiency	-12935
▁gf	-12936
▁xi	-12937
prop	-12938
stan	-12939
▁kah	-12940
▁marin	-12941
▁trace	-12942
▁locket	-12943
▁observ	-12944
▁anthrop	-12945
▁raising	-12946
▁investig	-12947
▁sweaters	-12948
▁catalogue	-12949
▁cinderella	-12950
!"	-12951
gae	-12952
oka	-12953
esty	-12954
▁sata	-12955
double	-12956
▁malibu	-12957
▁bundles	-12958
▁academic	-12959
▁asparagus	-12960
▁productions	-12961
5.	-12962
iq	-12963
ixon	-12964
▁nig	-12965
▁clasp	-12966
▁creme	-12967
▁telugu	-12968
▁cabbage	-12969
▁versace	-12970
▁ignition	-12971
▁transformation	-12972
zza	-12973
▁ci	-12974
▁wd	-12975
leaf	-12976
▁"20	-12977
▁anx	-12978
▁dob	-12979
▁lug	-12980
▁misc	-12981
▁oaks	-12982
ennial	-12983
sticks	-12984
▁acres	-12985
▁lashes	-12986
▁tester	-12987
▁affairs	-12988
▁maximum	-12989
▁scented	-12990
▁remedies	-12991
▁confident	-12992
▁implement	-12993
▁traveling	-12994
apes	-12995
eryl	-12996
▁sod	-12997
illes	-12998
▁drip	-12999
ffield	-13000
▁darth	-13001
▁jenny	-13002
▁rooft	-13003
▁setup	-13004
project	-13005
weather	-13006
possible	-13007
▁absolut	-13008
▁counting	-13009
▁lamborghini	-13010
▁$2	-13011
▁ln	-13012
▁pg	-13013
▁rj	-13014
▁108	-13015
▁280	-13016
▁bav	-13017
▁poe	-13018
antee	-13019
antis	-13020
▁bons	-13021
▁uefa	-13022
▁annie	-13023
enstein	-13024
▁geneva	-13025
▁foreclos	-13026
▁luminous	-13027
▁neoprene	-13028
▁attention	-13029
▁injection	-13030
▁conditions	-13031
ет	-13032
▁ces	-13033
disney	-13034
▁serge	-13035
▁uncle	-13036
▁alpaca	-13037
▁cognac	-13038
▁scheme	-13039
▁sleeps	-13040
portrait	-13041
▁quartet	-13042
▁salomon	-13043
▁ballerina	-13044
▁surveillance	-13045
equ	-13046
▁nd	-13047
enny	-13048
llis	-13049
vine	-13050
▁hue	-13051
▁mia	-13052
▁phr	-13053
▁tav	-13054
▁zach	-13055
racite	-13056
▁essex	-13057
▁minim	-13058
▁winery	-13059
▁citroen	-13060
▁lacquer	-13061
▁respond	-13062
hardcover	-13063
▁broadcast	-13064
▁asymmetric	-13065
/17	-13066
date	-13067
iber	-13068
rack	-13069
▁mtb	-13070
acles	-13071
▁1.25	-13072
colors	-13073
▁initi	-13074
▁bricks	-13075
▁scotts	-13076
........	-13077
▁retired	-13078
▁ruffles	-13079
thumbnail	-13080
▁checklist	-13081
▁favourite	-13082
▁assortment	-13083
▁bangladesh	-13084
▁volunteers	-13085
▁bridesmaids	-13086
▁jacksonville	-13087
wy	-13088
ilo	-13089
yss	-13090
rina	-13091
span	-13092
tier	-13093
▁520	-13094
▁rpm	-13095
/2015	-13096
agonal	-13097
▁radar	-13098
▁skins	-13099
▁jasmine	-13100
▁putting	-13101
▁safavieh	-13102
▁fairfield	-13103
▁mysteries	-13104
▁curriculum	-13105
▁encyclopedia	-13106
-4-	-13107
kat	-13108
kel	-13109
alam	-13110
isse	-13111
▁oxy	-13112
▁dslr	-13113
▁pans	-13114
▁reyn	-13115
▁avery	-13116
▁bingo	-13117
▁sidew	-13118
▁inform	-13119
▁poncho	-13120
▁rolled	-13121
▁charter	-13122
▁pudding	-13123
▁revival	-13124
▁sporting	-13125
▁thousand	-13126
▁vocabulary	-13127
akh	-13128
tel	-13129
atti	-13130
holm	-13131
inas	-13132
▁mari	-13133
▁maze	-13134
▁avent	-13135
▁addict	-13136
▁cartier	-13137
▁gregory	-13138
▁patches	-13139
▁tungsten	-13140
▁variable	-13141
▁administr	-13142
107	-13143
eez	-13144
nap	-13145
oko	-13146
▁mim	-13147
earth	-13148
shund	-13149
▁gand	-13150
▁luis	-13151
▁synd	-13152
▁vick	-13153
▁wiki	-13154
▁cisco	-13155
▁terms	-13156
▁visor	-13157
▁packers	-13158
▁cassette	-13159
▁pharmacy	-13160
engagement	-13161
▁teleflora	-13162
▁collective	-13163
▁compartment	-13164
▁personality	-13165
goo	-13166
assis	-13167
aurus	-13168
nings	-13169
▁rams	-13170
▁miner	-13171
▁sofia	-13172
▁meghan	-13173
▁riders	-13174
▁skulls	-13175
▁detector	-13176
▁transformer	-13177
▁customizable	-13178
ados	-13179
dles	-13180
sand	-13181
▁rup	-13182
▁1956	-13183
▁1957	-13184
▁6000	-13185
▁canc	-13186
▁lava	-13187
▁musc	-13188
▁caddy	-13189
▁vente	-13190
mounted	-13191
▁bulgar	-13192
▁convey	-13193
▁nelson	-13194
▁airsoft	-13195
▁courses	-13196
▁payment	-13197
▁expected	-13198
rh	-13199
alg	-13200
ismo	-13201
izon	-13202
anton	-13203
touch	-13204
uggest	-13205
▁alter	-13206
▁bened	-13207
▁clare	-13208
▁jesse	-13209
▁pilgr	-13210
▁scope	-13211
▁panini	-13212
▁sweets	-13213
▁mcqueen	-13214
▁pelican	-13215
▁remains	-13216
▁quilting	-13217
▁brushless	-13218
▁collectibles	-13219
-45	-13220
abe	-13221
emp	-13222
uket	-13223
▁hut	-13224
▁1983	-13225
▁acne	-13226
▁evol	-13227
▁junk	-13228
▁quik	-13229
▁symp	-13230
ijuana	-13231
illing	-13232
▁biden	-13233
▁dunes	-13234
▁sigma	-13235
▁hosted	-13236
▁toward	-13237
▁attacks	-13238
▁binding	-13239
▁terrain	-13240
▁advertis	-13241
▁rotating	-13242
▁perforated	-13243
▁walkthrough	-13244
athe	-13245
enced	-13246
using	-13247
▁cinem	-13248
▁gamer	-13249
▁neuro	-13250
▁vince	-13251
ishment	-13252
▁tumblr	-13253
▁founder	-13254
▁geforce	-13255
▁lighter	-13256
▁vikings	-13257
▁deadpool	-13258
▁impressive	-13259
▁registration	-13260
305	-13261
▁lm	-13262
prem	-13263
trip	-13264
vore	-13265
▁ruc	-13266
▁amid	-13267
▁nour	-13268
▁hardy	-13269
▁nitro	-13270
▁wipes	-13271
▁aprons	-13272
▁guided	-13273
▁prefer	-13274
▁genesis	-13275
▁networks	-13276
▁websites	-13277
▁❤	-13278
-26	-13279
201	-13280
▁#22	-13281
▁mai	-13282
▁xen	-13283
atore	-13284
▁adds	-13285
▁laws	-13286
▁remy	-13287
people	-13288
rology	-13289
▁antar	-13290
▁sixth	-13291
▁detach	-13292
▁gerber	-13293
▁italia	-13294
▁waving	-13295
lighting	-13296
▁citrine	-13297
▁savings	-13298
▁arrested	-13299
▁disaster	-13300
▁appliance	-13301
▁consulting	-13302
ifl	-13303
wik	-13304
mach	-13305
rone	-13306
york	-13307
▁doo	-13308
henga	-13309
▁bert	-13310
umental	-13311
▁shrine	-13312
▁sussex	-13313
▁wedges	-13314
▁★	-13315
nor	-13316
▁0,	-13317
▁wc	-13318
knot	-13319
▁pne	-13320
▁sib	-13321
iguez	-13322
▁chad	-13323
▁sting	-13324
▁welsh	-13325
▁bistro	-13326
▁digest	-13327
▁freeze	-13328
▁torrent	-13329
▁writers	-13330
▁swimsuit	-13331
▁emotional	-13332
sq	-13333
▁це	-13334
trib	-13335
▁uhd	-13336
inian	-13337
vinyl	-13338
▁able	-13339
▁cous	-13340
▁cumm	-13341
▁sket	-13342
walker	-13343
▁finds	-13344
▁orders	-13345
▁sophie	-13346
▁jogging	-13347
▁martini	-13348
▁scarves	-13349
▁whimsical	-13350
▁rainforest	-13351
▁multifunction	-13352
ен	-13353
sco	-13354
uku	-13355
▁xv	-13356
urai	-13357
wolf	-13358
▁24-	-13359
▁pkg	-13360
▁zag	-13361
about	-13362
floor	-13363
uffle	-13364
▁keen	-13365
▁peas	-13366
istani	-13367
manuel	-13368
▁revel	-13369
▁aspire	-13370
▁cambod	-13371
▁remark	-13372
▁colombia	-13373
▁telescope	-13374
▁improvement	-13375
▁pomegranate	-13376
▁celebrations	-13377
assic	-13378
▁1982	-13379
▁evan	-13380
▁thro	-13381
▁alleg	-13382
▁flops	-13383
▁hooks	-13384
▁scuba	-13385
▁finale	-13386
▁contrib	-13387
▁eternal	-13388
▁fighters	-13389
▁reaction	-13390
▁chronicle	-13391
▁queensland	-13392
▁extraordinary	-13393
▁cn	-13394
onne	-13395
poly	-13396
▁wiz	-13397
onies	-13398
total	-13399
▁chak	-13400
▁turns	-13401
▁facade	-13402
▁santor	-13403
▁matters	-13404
▁overhead	-13405
▁construct	-13406
▁sweatshirts	-13407
▁inspirations	-13408
2_	-13409
vg	-13410
925	-13411
pay	-13412
rov	-13413
▁lr	-13414
▁jin	-13415
▁rak	-13416
▁sov	-13417
mania	-13418
▁blvd	-13419
▁cowl	-13420
▁armed	-13421
▁highly	-13422
▁needed	-13423
▁intense	-13424
▁suicide	-13425
▁sheffield	-13426
▁homeschool	-13427
ли	-13428
264	-13429
ikh	-13430
▁7.	-13431
▁zx	-13432
feld	-13433
ycat	-13434
▁ghz	-13435
eship	-13436
fifty	-13437
▁brom	-13438
▁fool	-13439
▁mull	-13440
▁tend	-13441
▁weed	-13442
▁fundra	-13443
▁mascul	-13444
esterday	-13445
▁subject	-13446
▁volcano	-13447
▁patriots	-13448
▁detective	-13449
▁outlander	-13450
':	-13451
last	-13452
leon	-13453
oura	-13454
▁alo	-13455
▁lod	-13456
▁lub	-13457
▁sta	-13458
psons	-13459
▁mons	-13460
▁shack	-13461
▁memoir	-13462
▁reform	-13463
▁shells	-13464
▁crafted	-13465
▁denmark	-13466
▁garment	-13467
▁unusual	-13468
▁audience	-13469
▁panthers	-13470
▁formation	-13471
lis	-13472
пит	-13473
fits	-13474
lime	-13475
russ	-13476
▁amar	-13477
▁angl	-13478
▁dahl	-13479
▁elim	-13480
▁parm	-13481
stripe	-13482
▁escal	-13483
lux	-13484
▁8'	-13485
boot	-13486
idia	-13487
▁gol	-13488
▁pcb	-13489
arius	-13490
▁dorm	-13491
▁rims	-13492
▁2020,	-13493
▁ambul	-13494
▁depos	-13495
▁floyd	-13496
▁grave	-13497
▁joins	-13498
▁(2013)	-13499
▁mystic	-13500
▁smiles	-13501
▁trunks	-13502
marketing	-13503
▁polyvore	-13504
▁americans	-13505
▁dachshund	-13506
▁versatile	-13507
-23	-13508
112	-13509
▁np	-13510
month	-13511
▁mend	-13512
▁macar	-13513
▁sears	-13514
▁towns	-13515
▁(2016)	-13516
▁labrad	-13517
▁output	-13518
▁oyster	-13519
▁passes	-13520
▁twelve	-13521
▁voyage	-13522
▁concern	-13523
▁pleasant	-13524
▁anthology	-13525
▁innovative	-13526
▁thermometer	-13527
hm	-13528
rit	-13529
otti	-13530
phil	-13531
ried	-13532
▁leap	-13533
▁mash	-13534
▁holes	-13535
enhagen	-13536
▁hazard	-13537
▁primer	-13538
▁skiing	-13539
▁tiered	-13540
▁concord	-13541
▁hillary	-13542
▁tibetan	-13543
▁drilling	-13544
hf	-13545
anya	-13546
icap	-13547
▁dont	-13548
▁nook	-13549
▁oral	-13550
▁tyre	-13551
▁fendi	-13552
▁prosp	-13553
▁venus	-13554
▁belong	-13555
▁palmer	-13556
▁photoc	-13557
national	-13558
▁imgflip	-13559
▁suggest	-13560
▁weapons	-13561
▁conflict	-13562
▁sailboat	-13563
roof	-13564
▁270	-13565
▁isn	-13566
▁mald	-13567
▁fever	-13568
▁vodka	-13569
▁airbus	-13570
▁banking	-13571
▁bennett	-13572
▁recycle	-13573
▁stamped	-13574
▁opportunity	-13575
-90	-13576
/50	-13577
205	-13578
adv	-13579
vit	-13580
bbie	-13581
▁10'	-13582
▁2.2	-13583
▁ras	-13584
backs	-13585
▁lets	-13586
▁slam	-13587
▁weird	-13588
▁cloudy	-13589
▁maiden	-13590
▁stevens	-13591
▁neckline	-13592
▁developing	-13593
▁sacramento	-13594
/9	-13595
idos	-13596
▁dana	-13597
▁modi	-13598
itions	-13599
ocular	-13600
▁subst	-13601
▁troll	-13602
▁weigh	-13603
▁brunch	-13604
▁tucson	-13605
▁haircuts	-13606
▁patricia	-13607
144	-13608
380	-13609
angu	-13610
▁16:	-13611
▁ips	-13612
▁ord	-13613
▁sic	-13614
▁vas	-13615
▁taff	-13616
living	-13617
▁2009.	-13618
▁nicol	-13619
▁petit	-13620
▁randy	-13621
▁tracy	-13622
▁(2014)	-13623
▁bobble	-13624
▁determ	-13625
▁damaged	-13626
▁gorilla	-13627
▁municip	-13628
▁thoughts	-13629
▁childhood	-13630
▁economics	-13631
▁northeast	-13632
▁yesterday	-13633
▁sportswear	-13634
tip	-13635
6750	-13636
ails	-13637
eric	-13638
▁#23	-13639
▁kos	-13640
▁pyj	-13641
posed	-13642
▁claw	-13643
▁kris	-13644
▁fleur	-13645
▁leeds	-13646
content	-13647
ologist	-13648
ucksack	-13649
▁archae	-13650
▁titans	-13651
▁gabbana	-13652
▁jamaica	-13653
▁skating	-13654
▁arrivals	-13655
▁coverage	-13656
▁receives	-13657
▁colouring	-13658
▁rodriguez	-13659
▁appearance	-13660
▁recreation	-13661
▁administration	-13662
,'	-13663
uw	-13664
▁dil	-13665
▁thy	-13666
ignon	-13667
owski	-13668
▁desp	-13669
▁gopro	-13670
▁conven	-13671
▁blurred	-13672
▁capsule	-13673
▁lehenga	-13674
▁delivers	-13675
▁monitoring	-13676
▁retractable	-13677
▁rhinestones	-13678
301	-13679
▁́s	-13680
circ	-13681
pear	-13682
▁fert	-13683
▁gian	-13684
▁skys	-13685
▁(2012)	-13686
▁shuttle	-13687
▁wallace	-13688
▁captured	-13689
▁valencia	-13690
▁expandable	-13691
aqu	-13692
tha	-13693
nell	-13694
prim	-13695
rees	-13696
zzle	-13697
▁1/8	-13698
erset	-13699
▁cans	-13700
▁kathy	-13701
▁charged	-13702
▁wallets	-13703
▁dolphins	-13704
▁junction	-13705
oi	-13706
asma	-13707
▁260	-13708
▁koi	-13709
▁orb	-13710
▁ugg	-13711
▁urn	-13712
uckle	-13713
▁hike	-13714
▁spok	-13715
▁swag	-13716
holiday	-13717
▁hobbit	-13718
▁slices	-13719
▁breasted	-13720
▁expensive	-13721
▁naturally	-13722
▁ornamental	-13723
109	-13724
mom	-13725
ipeg	-13726
ycon	-13727
▁dri	-13728
▁gros	-13729
▁mann	-13730
▁tear	-13731
church	-13732
rocket	-13733
▁spell	-13734
▁gundam	-13735
▁legion	-13736
▁lizard	-13737
▁sphere	-13738
▁casting	-13739
▁pursuit	-13740
▁revenge	-13741
▁efficient	-13742
▁guarantee	-13743
199	-13744
var	-13745
▁cj	-13746
east	-13747
sold	-13748
▁kai	-13749
▁nbc	-13750
▁fuji	-13751
▁perc	-13752
▁chloe	-13753
▁hindu	-13754
▁often	-13755
iantart	-13756
▁phuket	-13757
▁emperor	-13758
▁madness	-13759
▁norfolk	-13760
▁whirlpool	-13761
!:	-13762
bid	-13763
!!!!	-13764
esan	-13765
furn	-13766
plat	-13767
▁cec	-13768
▁dul	-13769
▁loy	-13770
▁soho	-13771
▁resur	-13772
▁treas	-13773
▁milano	-13774
▁troops	-13775
▁tuscan	-13776
▁antenna	-13777
▁cowhide	-13778
▁fundament	-13779
▁pakistani	-13780
bg	-13781
420	-13782
mem	-13783
bled	-13784
ibly	-13785
ensen	-13786
orous	-13787
▁1961	-13788
▁else	-13789
▁arbor	-13790
▁naval	-13791
▁unity	-13792
▁kardash	-13793
▁radiant	-13794
▁rosewood	-13795
▁zapatillas	-13796
cht	-13797
rik	-13798
easy	-13799
alers	-13800
sweet	-13801
▁aloe	-13802
▁cells	-13803
▁flies	-13804
▁syrup	-13805
ighters	-13806
▁cosmic	-13807
▁norton	-13808
▁winston	-13809
▁continue	-13810
▁challenger	-13811
▁engineered	-13812
4/	-13813
but	-13814
alex	-13815
atus	-13816
hartt	-13817
pling	-13818
▁visa	-13819
▁numer	-13820
▁rises	-13821
printed	-13822
▁carson	-13823
▁donkey	-13824
▁plains	-13825
▁retina	-13826
▁belgian	-13827
▁everest	-13828
▁gilbert	-13829
▁silence	-13830
▁multicolored	-13831
fd	-13832
.95	-13833
cad	-13834
cin	-13835
..."	-13836
▁sku	-13837
scott	-13838
visor	-13839
▁quar	-13840
elines	-13841
german	-13842
▁attic	-13843
▁recap	-13844
▁herman	-13845
orescent	-13846
▁spacious	-13847
▁designing	-13848
▁stephanie	-13849
▁thermostat	-13850
▁centerpieces	-13851
wo	-13852
-28	-13853
uls	-13854
acer	-13855
inoa	-13856
onna	-13857
▁rhe	-13858
anmar	-13859
▁lung	-13860
▁raff	-13861
▁chaos	-13862
▁norwe	-13863
▁desire	-13864
▁bedside	-13865
▁karaoke	-13866
▁kissing	-13867
▁platter	-13868
▁preston	-13869
▁cottages	-13870
▁weathered	-13871
▁insulation	-13872
_4	-13873
jes	-13874
expl	-13875
lton	-13876
▁310	-13877
▁lup	-13878
▁sis	-13879
dream	-13880
▁elsa	-13881
▁guer	-13882
▁hash	-13883
▁2016:	-13884
▁britt	-13885
▁drugs	-13886
▁glide	-13887
▁racks	-13888
▁rhino	-13889
▁consum	-13890
▁madden	-13891
▁caption	-13892
▁daisies	-13893
▁specialist	-13894
▁translation	-13895
fur	-13896
zzy	-13897
iton	-13898
rand	-13899
yers	-13900
▁16-	-13901
▁sip	-13902
▁spo	-13903
ocaly	-13904
▁curl	-13905
▁cypr	-13906
▁peep	-13907
▁antig	-13908
▁azure	-13909
▁edgar	-13910
▁isaac	-13911
▁minif	-13912
▁roads	-13913
▁topped	-13914
▁endless	-13915
▁caroline	-13916
▁pregnant	-13917
▁underwear	-13918
gom	-13919
gor	-13920
stad	-13921
▁104	-13922
▁aest	-13923
▁chur	-13924
▁gart	-13925
▁nets	-13926
▁manga	-13927
derabad	-13928
▁hungry	-13929
▁jackie	-13930
▁transm	-13931
▁pressed	-13932
▁produce	-13933
▁fixtures	-13934
▁operated	-13935
▁motivation	-13936
uen	-13937
▁3'	-13938
ayan	-13939
▁zim	-13940
▁1981	-13941
iments	-13942
▁beech	-13943
diamond	-13944
purpose	-13945
▁folded	-13946
▁murano	-13947
▁wolves	-13948
▁touchdown	-13949
▁impossible	-13950
▁firefighter	-13951
▁asymmetrical	-13952
ес	-13953
од	-13954
avi	-13955
oos	-13956
pañ	-13957
▁6:	-13958
lean	-13959
wali	-13960
▁20)	-13961
▁kne	-13962
▁wee	-13963
▁ripe	-13964
▁vape	-13965
▁choir	-13966
▁palms	-13967
onymous	-13968
▁bonsai	-13969
▁rather	-13970
▁beckham	-13971
▁bottoms	-13972
▁zucchini	-13973
▁lexington	-13974
eo	-13975
eed	-13976
ifa	-13977
▁bv	-13978
▁ji	-13979
kong	-13980
poke	-13981
▁epo	-13982
▁taj	-13983
asion	-13984
ophone	-13985
▁grams	-13986
▁rides	-13987
▁clarke	-13988
plements	-13989
▁elliott	-13990
▁becoming	-13991
▁chambray	-13992
▁received	-13993
▁windmill	-13994
▁winnipeg	-13995
▁ergonomic	-13996
▁favorites	-13997
▁refurbished	-13998
▁springfield	-13999
▁supermarket	-14000
▁metropolitan	-14001
/24	-14002
dot	-14003
lle	-14004
▁ns	-14005
crop	-14006
lord	-14007
olph	-14008
uroy	-14009
▁paws	-14010
iletto	-14011
▁alpin	-14012
▁dedic	-14013
▁henri	-14014
▁satis	-14015
▁sinks	-14016
attered	-14017
▁proced	-14018
▁constell	-14019
▁nicholas	-14020
▁provence	-14021
▁timeline	-14022
▁untitled	-14023
▁pregnancy	-14024
▁sanctuary	-14025
▁9-	-14026
▁tz	-14027
chem	-14028
▁azul	-14029
▁2014:	-14030
▁exist	-14031
▁watts	-14032
▁extrem	-14033
▁priest	-14034
▁praying	-14035
▁evidence	-14036
▁hammered	-14037
▁programme	-14038
▁tracksuit	-14039
▁prevention	-14040
▁mathematics	-14041
▁announcements	-14042
▁10.	-14043
entry	-14044
match	-14045
▁dolly	-14046
▁forex	-14047
▁forge	-14048
▁kumar	-14049
▁teaser	-14050
▁lecture	-14051
▁leonardo	-14052
▁maverick	-14053
▁continues	-14054
▁evergreen	-14055
▁installed	-14056
▁officially	-14057
▁touchscreen	-14058
)(	-14059
mn	-14060
118	-14061
124	-14062
chu	-14063
jac	-14064
usb	-14065
pick	-14066
▁4.2	-14067
▁hod	-14068
alore	-14069
magic	-14070
stamp	-14071
▁bale	-14072
▁bore	-14073
runner	-14074
▁costs	-14075
▁raise	-14076
▁alumni	-14077
▁fergus	-14078
▁perman	-14079
▁bunting	-14080
▁experts	-14081
▁gateway	-14082
▁scarlet	-14083
▁upright	-14084
▁frontier	-14085
▁copenhagen	-14086
anim	-14087
mand	-14088
▁113	-14089
/2017	-14090
/2018	-14091
ither	-14092
orter	-14093
shade	-14094
▁scal	-14095
▁sore	-14096
▁donut	-14097
▁megan	-14098
▁flyers	-14099
▁ghosts	-14100
▁grades	-14101
athletic	-14102
▁appears	-14103
▁resting	-14104
▁filament	-14105
▁henderson	-14106
cf	-14107
10,	-14108
▁106	-14109
▁euc	-14110
▁crus	-14111
▁loll	-14112
▁lilly	-14113
▁prism	-14114
▁spand	-14115
▁spear	-14116
▁yukon	-14117
▁etched	-14118
▁except	-14119
▁naruto	-14120
finished	-14121
▁reynolds	-14122
▁steelers	-14123
▁regarding	-14124
▁creativity	-14125
adan	-14126
eler	-14127
tren	-14128
▁usd	-14129
/2019	-14130
aders	-14131
▁pablo	-14132
▁peony	-14133
▁shank	-14134
▁monast	-14135
▁guardians	-14136
▁associates	-14137
raw	-14138
unc	-14139
icht	-14140
▁$15	-14141
▁ack	-14142
▁adm	-14143
rette	-14144
times	-14145
waist	-14146
▁cara	-14147
▁knox	-14148
▁ariel	-14149
▁bison	-14150
▁meyer	-14151
display	-14152
▁affair	-14153
▁cliffs	-14154
▁lisbon	-14155
▁loafer	-14156
▁ripped	-14157
▁lattice	-14158
▁prepared	-14159
▁previous	-14160
▁detachable	-14161
▁outfitters	-14162
bey	-14163
eno	-14164
fal	-14165
rak	-14166
▁$3	-14167
▁81	-14168
▁ff	-14169
oved	-14170
plum	-14171
rupt	-14172
пить	-14173
▁20-	-14174
▁hij	-14175
▁clap	-14176
▁flop	-14177
minute	-14178
▁blaze	-14179
▁chant	-14180
▁estab	-14181
▁flora	-14182
ceanera	-14183
▁656750	-14184
▁kimono	-14185
▁pigeon	-14186
▁reliable	-14187
▁blackboard	-14188
▁employment	-14189
▁battlefield	-14190
cla	-14191
dim	-14192
img	-14193
▁kc	-14194
coll	-14195
ints	-14196
leen	-14197
pace	-14198
▁18-	-14199
▁als	-14200
▁mfg	-14201
cheon	-14202
▁diva	-14203
imeter	-14204
lectic	-14205
usters	-14206
▁batik	-14207
▁himal	-14208
▁hosts	-14209
▁petal	-14210
▁quinn	-14211
▁actors	-14212
▁adding	-14213
▁diffic	-14214
▁quilts	-14215
▁surfer	-14216
▁bridges	-14217
▁remover	-14218
▁earphone	-14219
▁sunlight	-14220
▁operating	-14221
▁automobile	-14222
▁locomotive	-14223
▁motorcycles	-14224
▁collaboration	-14225
225	-14226
0000	-14227
▁vie	-14228
▁daff	-14229
▁gave	-14230
▁kane	-14231
▁taco	-14232
▁yach	-14233
copter	-14234
stroke	-14235
▁brent	-14236
▁burnt	-14237
▁error	-14238
▁seoul	-14239
▁mixing	-14240
▁hundred	-14241
▁raleigh	-14242
▁runners	-14243
▁condomin	-14244
▁diagnost	-14245
▁manicure	-14246
▁stiletto	-14247
▁riverside	-14248
▁wolverine	-14249
▁quiksilver	-14250
▁winchester	-14251
▁investigation	-14252
bout	-14253
▁pia	-14254
ylene	-14255
▁$100	-14256
▁10.1	-14257
▁1958	-14258
▁craf	-14259
▁moms	-14260
▁saff	-14261
minton	-14262
▁analy	-14263
▁cairo	-14264
▁venez	-14265
▁arabia	-14266
▁became	-14267
▁cyprus	-14268
▁guinea	-14269
▁diaries	-14270
▁paralle	-14271
▁geography	-14272
▁recommend	-14273
▁businesses	-14274
▁networking	-14275
nb	-14276
175	-14277
▁jal	-14278
▁pik	-14279
autom	-14280
▁kitt	-14281
▁kobe	-14282
▁rfid	-14283
urpose	-14284
▁destr	-14285
▁maths	-14286
edition	-14287
ocation	-14288
▁ducati	-14289
▁submar	-14290
▁andrews	-14291
▁glamour	-14292
▁announce	-14293
▁attached	-14294
▁predator	-14295
dt	-14296
-55	-14297
cie	-14298
toe	-14299
vor	-14300
▁1959	-14301
▁cola	-14302
▁tied	-14303
▁autoc	-14304
▁casey	-14305
▁glenn	-14306
▁mummy	-14307
▁qatar	-14308
▁tramp	-14309
▁avalon	-14310
▁sharks	-14311
▁syrian	-14312
▁deutsch	-14313
▁mascara	-14314
▁biscuits	-14315
▁merchand	-14316
▁crossover	-14317
▁dandelion	-14318
▁santorini	-14319
▁perfection	-14320
▁condominium	-14321
uru	-14322
math	-14323
velt	-14324
▁10:	-14325
▁clo	-14326
▁eid	-14327
▁rut	-14328
▁brim	-14329
icular	-14330
▁fibre	-14331
▁fifty	-14332
▁anyone	-14333
▁benedict	-14334
▁customize	-14335
%2	-14336
ía	-14337
/25	-14338
340	-14339
god	-14340
▁wu	-14341
jpeg	-14342
azzle	-14343
games	-14344
stead	-14345
▁fare	-14346
▁hass	-14347
▁sans	-14348
▁cello	-14349
▁chihu	-14350
▁crank	-14351
inating	-14352
ughters	-14353
▁devils	-14354
▁garcia	-14355
▁slider	-14356
▁angular	-14357
▁doctors	-14358
▁whisper	-14359
▁carhartt	-14360
▁comments	-14361
▁quarters	-14362
▁scorpion	-14363
▁carpenter	-14364
▁furnished	-14365
▁marijuana	-14366
▁kardashian	-14367
▁pillowcase	-14368
990	-14369
▁kx	-14370
alli	-14371
anye	-14372
incl	-14373
uino	-14374
▁wei	-14375
▁zoe	-14376
borah	-14377
▁asph	-14378
▁bats	-14379
▁keto	-14380
▁bruno	-14381
▁futur	-14382
▁reiss	-14383
▁rapids	-14384
▁instead	-14385
▁outlook	-14386
▁romania	-14387
beautiful	-14388
▁assemble	-14389
▁corduroy	-14390
▁mechanic	-14391
▁provides	-14392
lc	-14393
129	-14394
▁''	-14395
adas	-14396
anni	-14397
plug	-14398
▁123	-14399
▁sto	-14400
apest	-14401
▁raym	-14402
▁vlad	-14403
osaurs	-14404
ullivan	-14405
▁europa	-14406
▁johann	-14407
▁quebec	-14408
▁quinoa	-14409
▁rhythm	-14410
▁anxiety	-14411
▁cascade	-14412
▁dancers	-14413
▁divorce	-14414
▁toshiba	-14415
▁cartoons	-14416
▁logitech	-14417
▁framework	-14418
wb	-14419
▁"1	-14420
▁2'	-14421
cola	-14422
▁10)	-14423
▁1945	-14424
▁brut	-14425
▁doom	-14426
▁gamb	-14427
cement	-14428
deluxe	-14429
▁barcl	-14430
▁kenny	-14431
▁plumb	-14432
▁spend	-14433
▁bengal	-14434
▁classy	-14435
▁mirage	-14436
▁webcam	-14437
▁swallow	-14438
▁prestige	-14439
▁sunburst	-14440
▁vineyards	-14441
▁outstanding	-14442
▁entrepreneur	-14443
145	-14444
isch	-14445
▁(5)	-14446
▁144	-14447
▁tok	-14448
paris	-14449
▁como	-14450
▁pisc	-14451
eshire	-14452
sworth	-14453
▁apric	-14454
▁braun	-14455
▁drunk	-14456
▁vader	-14457
istered	-14458
selling	-14459
▁settle	-14460
▁banquet	-14461
▁booklet	-14462
▁kangaroo	-14463
▁simpsons	-14464
▁organized	-14465
▁quinceanera	-14466
21)	-14467
lip	-14468
▁71	-14469
▁kb	-14470
▁pb	-14471
dell	-14472
very	-14473
▁7/8	-14474
▁tdi	-14475
bride	-14476
otech	-14477
story	-14478
▁aero	-14479
▁fell	-14480
▁judy	-14481
abella	-14482
loaded	-14483
▁comfy	-14484
▁lagos	-14485
▁plugin	-14486
▁shelby	-14487
▁warming	-14488
▁hyderabad	-14489
ат	-14490
117	-14491
208	-14492
bye	-14493
def	-14494
rub	-14495
alla	-14496
arna	-14497
idot	-14498
opez	-14499
actic	-14500
hotel	-14501
james	-14502
▁dans	-14503
▁lesl	-14504
access	-14505
antine	-14506
commun	-14507
iatric	-14508
▁beyon	-14509
▁rusty	-14510
▁salem	-14511
preview	-14512
▁shoots	-14513
▁soviet	-14514
facebook	-14515
▁filters	-14516
▁patients	-14517
▁tabletop	-14518
▁fundamentals	-14519
▁intermediate	-14520
▁professionals	-14521
md	-14522
ews	-14523
2012	-14524
heat	-14525
tale	-14526
▁6.0	-14527
▁jup	-14528
▁kub	-14529
gebra	-14530
▁fist	-14531
▁hull	-14532
▁lure	-14533
▁mete	-14534
▁unle	-14535
▁aster	-14536
▁grate	-14537
▁misty	-14538
▁achiev	-14539
▁actual	-14540
▁duncan	-14541
▁hamper	-14542
▁throws	-14543
▁tongue	-14544
birthday	-14545
▁chassis	-14546
▁receive	-14547
▁shaving	-14548
▁waisted	-14549
▁password	-14550
▁probably	-14551
▁honeycomb	-14552
▁kensington	-14553
cot	-14554
try	-14555
xic	-14556
race	-14557
▁bmx	-14558
▁fee	-14559
-2020	-14560
range	-14561
strip	-14562
stuff	-14563
uggle	-14564
▁mare	-14565
▁noah	-14566
▁poul	-14567
▁turf	-14568
▁karat	-14569
▁lumia	-14570
▁mosqu	-14571
android	-14572
catcher	-14573
▁labour	-14574
▁scales	-14575
▁spooky	-14576
▁willie	-14577
▁crossed	-14578
▁exhibit	-14579
▁shallow	-14580
▁stranger	-14581
▁wristlet	-14582
▁monastery	-14583
);	-14584
▁#0	-14585
▁hb	-14586
2016	-14587
arta	-14588
indy	-14589
▁sms	-14590
usive	-14591
▁alie	-14592
island	-14593
▁adela	-14594
▁belts	-14595
▁cigar	-14596
▁grown	-14597
▁indie	-14598
▁jolly	-14599
▁poison	-14600
▁repeat	-14601
▁versus	-14602
▁redwood	-14603
▁dimmable	-14604
▁jurassic	-14605
▁bookshelf	-14606
▁dollhouse	-14607
▁freestyle	-14608
▁supporting	-14609
▁treatments	-14610
113	-14611
▁ré	-14612
▁wb	-14613
bags	-14614
▁nue	-14615
▁osp	-14616
uries	-14617
▁13""	-14618
▁baja	-14619
▁phen	-14620
▁advoc	-14621
▁molly	-14622
▁pills	-14623
▁wendy	-14624
▁chiefs	-14625
▁diwali	-14626
▁noodle	-14627
▁reduce	-14628
▁spyder	-14629
▁thumbs	-14630
▁ethernet	-14631
▁diversity	-14632
/09	-14633
999	-14634
ols	-14635
uti	-14636
▁ux	-14637
-600	-14638
▁rus	-14639
rants	-14640
undle	-14641
▁1953	-14642
comple	-14643
▁2017:	-14644
▁canoe	-14645
▁ceram	-14646
▁ebony	-14647
▁nixon	-14648
▁carous	-14649
▁sandra	-14650
▁homeless	-14651
▁digitizer	-14652
▁profileTM	-14653
▁testament	-14654
▁dinnerware	-14655
▁preparation	-14656
lav	-14657
▁wo	-14658
acre	-14659
cars	-14660
uela	-14661
▁alc	-14662
▁cox	-14663
anite	-14664
hawks	-14665
panel	-14666
▁alfa	-14667
▁bait	-14668
▁ella	-14669
▁laur	-14670
▁mocha	-14671
▁wears	-14672
▁draped	-14673
▁extend	-14674
▁hinged	-14675
▁inkjet	-14676
▁saturn	-14677
▁flights	-14678
▁hamburg	-14679
▁spaniel	-14680
▁negative	-14681
▁thriller	-14682
▁paintball	-14683
▁landscapes	-14684
▁multifunctional	-14685
nl	-14686
ру	-14687
111	-14688
ogan	-14689
▁3.1	-14690
cules	-14691
▁jail	-14692
advent	-14693
irloom	-14694
quette	-14695
▁cider	-14696
▁playa	-14697
▁clever	-14698
▁travis	-14699
▁staples	-14700
▁whitney	-14701
▁playoffs	-14702
▁regulator	-14703
▁peppermint	-14704
▁chal	-14705
▁intr	-14706
▁perg	-14707
▁races	-14708
▁beaver	-14709
▁crispy	-14710
▁hannah	-14711
▁multic	-14712
▁ruched	-14713
▁darling	-14714
▁incense	-14715
▁reunion	-14716
▁serpent	-14717
▁toppers	-14718
▁covering	-14719
▁cucumber	-14720
▁demonstration	-14721
005	-14722
toy	-14723
▁8.	-14724
/100	-14725
atha	-14726
gang	-14727
hive	-14728
ivot	-14729
lene	-14730
▁dab	-14731
▁fus	-14732
▁sop	-14733
ching	-14734
coast	-14735
odore	-14736
▁mets	-14737
hammer	-14738
▁allan	-14739
▁numis	-14740
▁yummy	-14741
ulating	-14742
▁contro	-14743
▁finder	-14744
▁kosten	-14745
▁pierce	-14746
▁clement	-14747
▁customs	-14748
▁cypress	-14749
▁monkeys	-14750
▁bulldogs	-14751
▁displays	-14752
▁speedway	-14753
▁stafford	-14754
▁relations	-14755
▁depression	-14756
cost	-14757
feed	-14758
ials	-14759
icit	-14760
▁#24	-14761
▁165	-14762
▁fla	-14763
▁lte	-14764
▁myr	-14765
comes	-14766
maline	-14767
sports	-14768
▁broom	-14769
products	-14770
▁applied	-14771
▁diamante	-14772
▁lemonade	-14773
fax	-14774
▁za	-14775
iago	-14776
mans	-14777
▁qld	-14778
/2016	-14779
▁shay	-14780
amazon	-14781
ridges	-14782
tailed	-14783
▁freel	-14784
▁janet	-14785
▁skies	-14786
▁yours	-14787
▁leslie	-14788
▁jacques	-14789
▁plywood	-14790
▁trigger	-14791
▁keystone	-14792
▁rucksack	-14793
▁stanford	-14794
▁norwegian	-14795
▁recognition	-14796
hee	-14797
hon	-14798
kon	-14799
uli	-14800
adio	-14801
mith	-14802
ulty	-14803
▁#30	-14804
▁316	-14805
▁dag	-14806
▁gut	-14807
horse	-14808
three	-14809
▁afro	-14810
▁axle	-14811
▁dora	-14812
▁rais	-14813
▁latte	-14814
▁monop	-14815
▁upgra	-14816
▁housew	-14817
▁supers	-14818
▁boulder	-14819
▁checker	-14820
▁curious	-14821
▁joggers	-14822
▁passing	-14823
▁peridot	-14824
▁roberto	-14825
▁eclectic	-14826
▁ericdress	-14827
▁gentleman	-14828
▁whitening	-14829
js	-14830
640	-14831
lop	-14832
▁5)	-14833
▁iq	-14834
▁ix	-14835
▁avi	-14836
▁une	-14837
▁vii	-14838
antes	-14839
avers	-14840
chino	-14841
▁diss	-14842
apeake	-14843
atural	-14844
author	-14845
golden	-14846
nature	-14847
▁libre	-14848
▁sheeps	-14849
▁static	-14850
▁useful	-14851
▁arduino	-14852
▁bodycon	-14853
▁creator	-14854
▁fathers	-14855
▁stealth	-14856
▁ferguson	-14857
▁slimming	-14858
▁badminton	-14859
▁primitive	-14860
▁simulation	-14861
"")	-14862
122	-14863
anz	-14864
oste	-14865
past	-14866
utor	-14867
▁wsl	-14868
uette	-14869
▁hims	-14870
▁noel	-14871
boxing	-14872
fabric	-14873
▁pipes	-14874
▁holden	-14875
▁brought	-14876
▁fortress	-14877
▁addresses	-14878
▁contractor	-14879
▁attractions	-14880
▁instruction	-14881
furt	-14882
uman	-14883
▁007	-14884
▁175	-14885
▁kok	-14886
▁mav	-14887
▁café	-14888
▁graf	-14889
▁mild	-14890
▁nina	-14891
▁nott	-14892
▁plen	-14893
▁riot	-14894
iliate	-14895
illion	-14896
▁blair	-14897
▁vocal	-14898
▁arnold	-14899
▁bloody	-14900
▁checks	-14901
▁monter	-14902
▁купить	-14903
▁closing	-14904
▁rooftop	-14905
▁discussion	-14906
430	-14907
тор	-14908
eton	-14909
orie	-14910
▁kip	-14911
▁lah	-14912
▁ikat	-14913
chocol	-14914
places	-14915
▁estim	-14916
▁trips	-14917
▁woody	-14918
▁sprink	-14919
▁tested	-14920
▁carroll	-14921
▁martine	-14922
▁seashell	-14923
▁highlands	-14924
▁hydrangea	-14925
▁motherboard	-14926
ahoo	-14927
erno	-14928
stor	-14929
▁5/5	-14930
-2011	-14931
▁dwar	-14932
▁rond	-14933
aching	-14934
aneous	-14935
▁amish	-14936
▁desks	-14937
▁audrey	-14938
▁jaipur	-14939
▁keeper	-14940
▁slight	-14941
▁terrac	-14942
▁respect	-14943
▁riviera	-14944
resistant	-14945
▁exposure	-14946
▁offering	-14947
▁peaceful	-14948
▁dinosaurs	-14949
xr	-14950
003	-14951
10.	-14952
igi	-14953
nis	-14954
▁bg	-14955
flag	-14956
rele	-14957
site	-14958
▁avon	-14959
▁jute	-14960
▁skyl	-14961
▁tears	-14962
▁henley	-14963
formance	-14964
▁athlete	-14965
▁quantum	-14966
▁variant	-14967
▁caucasian	-14968
▁countdown	-14969
▁frederick	-14970
▁remington	-14971
▁burlington	-14972
jas	-14973
▁hm	-14974
▁mh	-14975
eyes	-14976
grow	-14977
▁(13	-14978
▁dlc	-14979
▁nol	-14980
▁odd	-14981
▁suk	-14982
▁decl	-14983
▁gonz	-14984
▁nava	-14985
inated	-14986
▁litre	-14987
▁lopez	-14988
▁rainy	-14989
▁speck	-14990
▁swamp	-14991
▁bounce	-14992
▁cereal	-14993
▁sniper	-14994
▁spruce	-14995
▁seniors	-14996
▁spreads	-14997
▁labrador	-14998
▁modified	-14999
▁philippe	-15000
▁frequency	-15001
▁aliexpress	-15002
▁automation	-15003
▁continuous	-15004
1_	-15005
qv	-15006
opt	-15007
▁mé	-15008
desk	-15009
rect	-15010
thal	-15011
▁hik	-15012
close	-15013
▁berg	-15014
▁jedi	-15015
▁voor	-15016
▁abuse	-15017
▁goalk	-15018
▁kicks	-15019
▁linux	-15020
▁oxygen	-15021
▁deborah	-15022
▁fractal	-15023
▁lebanon	-15024
▁cultured	-15025
▁organize	-15026
▁christina	-15027
▁flowering	-15028
▁motorbike	-15029
▁fluorescent	-15030
▁chesterfield	-15031
▁scrapbooking	-15032
odo	-15033
ahan	-15034
ttes	-15035
ycar	-15036
yout	-15037
▁8.0	-15038
▁bals	-15039
stitch	-15040
▁2011,	-15041
▁delay	-15042
▁blower	-15043
▁meters	-15044
▁roland	-15045
▁sahara	-15046
▁yankee	-15047
▁auditor	-15048
▁carrots	-15049
▁dentist	-15050
▁himself	-15051
▁natalie	-15052
▁adelaide	-15053
▁ambulance	-15054
▁permanent	-15055
▁longsleeve	-15056
▁sj	-15057
▁530	-15058
▁cum	-15059
▁raf	-15060
▁slr	-15061
▁joey	-15062
▁juke	-15063
▁mayo	-15064
▁slit	-15065
around	-15066
encies	-15067
umatic	-15068
▁canin	-15069
▁energ	-15070
▁props	-15071
▁utens	-15072
igurumi	-15073
▁caboch	-15074
▁curtis	-15075
▁marion	-15076
▁coleman	-15077
▁despite	-15078
▁ballroom	-15079
▁cheerful	-15080
▁enhanced	-15081
▁musician	-15082
▁somerset	-15083
▁boardwalk	-15084
▁electricity	-15085
▁constitution	-15086
6""	-15087
eff	-15088
▁aq	-15089
▁bts	-15090
▁ipl	-15091
▁sai	-15092
elift	-15093
onica	-15094
▁11""	-15095
▁chow	-15096
▁grin	-15097
▁grom	-15098
▁billi	-15099
▁drums	-15100
▁hards	-15101
▁mardi	-15102
▁grille	-15103
▁rajast	-15104
▁seeing	-15105
▁therap	-15106
▁myanmar	-15107
▁recessed	-15108
▁cocktails	-15109
▁workplace	-15110
▁advertisement	-15111
nz	-15112
127	-15113
zzo	-15114
-500	-15115
alog	-15116
bang	-15117
cose	-15118
ucci	-15119
voir	-15120
▁bea	-15121
ellar	-15122
icken	-15123
▁mura	-15124
oucher	-15125
▁clubs	-15126
▁crisp	-15127
▁packet	-15128
▁poplin	-15129
▁bedford	-15130
▁chimney	-15131
▁engines	-15132
▁rooster	-15133
▁vectors	-15134
▁producer	-15135
▁sherlock	-15136
▁chihuahua	-15137
▁churchill	-15138
wl	-15139
chat	-15140
esha	-15141
▁1024	-15142
▁indy	-15143
common	-15144
import	-15145
▁ahmed	-15146
▁bowie	-15147
▁sleek	-15148
▁souls	-15149
▁synth	-15150
▁daffod	-15151
▁nesting	-15152
▁revenue	-15153
▁startup	-15154
▁barstool	-15155
▁cellular	-15156
▁cookware	-15157
▁democracy	-15158
▁kitchenaid	-15159
▁numismedia	-15160
▁opportunities	-15161
dx	-15162
480	-15163
▁nb	-15164
auto	-15165
imir	-15166
▁edp	-15167
▁seaw	-15168
▁stup	-15169
enburg	-15170
▁2018:	-15171
▁alexa	-15172
▁enemy	-15173
▁pesto	-15174
▁prong	-15175
▁rival	-15176
▁beacon	-15177
▁bowman	-15178
▁raptor	-15179
▁sleigh	-15180
▁styled	-15181
▁tempor	-15182
▁booking	-15183
▁revised	-15184
▁rockets	-15185
▁weaving	-15186
▁cambodia	-15187
▁combined	-15188
▁anonymous	-15189
▁daughters	-15190
▁kostenlos	-15191
165	-15192
gov	-15193
▁mj	-15194
▁от	-15195
rust	-15196
shan	-15197
▁jos	-15198
▁vig	-15199
elier	-15200
inker	-15201
veled	-15202
▁isbn	-15203
▁sled	-15204
▁2012:	-15205
▁garry	-15206
▁deploy	-15207
▁keller	-15208
▁packed	-15209
▁apocaly	-15210
▁betting	-15211
▁insight	-15212
▁samurai	-15213
▁sherman	-15214
▁supports	-15215
▁lancaster	-15216
▁perfectly	-15217
▁collectors	-15218
188	-15219
eli	-15220
lnp	-15221
wat	-15222
▁7:	-15223
▁gx	-15224
duty	-15225
sche	-15226
▁$25	-15227
archy	-15228
motor	-15229
▁derm	-15230
▁opin	-15231
▁wint	-15232
banner	-15233
womens	-15234
▁decks	-15235
▁haute	-15236
▁nomad	-15237
▁bayern	-15238
▁smokey	-15239
▁voices	-15240
▁marines	-15241
reciation	-15242
▁excavator	-15243
▁projection	-15244
▁technician	-15245
3_	-15246
.50	-15247
brit	-15248
cele	-15249
▁bie	-15250
austr	-15251
▁komb	-15252
▁vect	-15253
engine	-15254
▁lowes	-15255
▁lynch	-15256
▁milky	-15257
▁collie	-15258
▁legisl	-15259
▁pillar	-15260
▁unveils	-15261
▁heirloom	-15262
▁addiction	-15263
▁finishing	-15264
▁experiment	-15265
▁inspection	-15266
wn	-15267
260	-15268
tea	-15269
fant	-15270
golf	-15271
ifil	-15272
volt	-15273
▁abd	-15274
▁noc	-15275
▁caes	-15276
▁dino	-15277
▁lush	-15278
▁stark	-15279
channel	-15280
▁jardin	-15281
▁veggie	-15282
▁zircon	-15283
▁broncos	-15284
▁eyebrow	-15285
▁raccoon	-15286
▁mechanics	-15287
infographic	-15288
155	-15289
_19	-15290
hin	-15291
rob	-15292
▁1.3	-15293
▁119	-15294
▁135	-15295
▁apt	-15296
▁nib	-15297
▁rah	-15298
▁xlt	-15299
bourg	-15300
▁48""	-15301
▁batch	-15302
▁dixon	-15303
▁owned	-15304
▁debbie	-15305
▁diploma	-15306
▁frances	-15307
▁heading	-15308
▁frosting	-15309
▁mandarin	-15310
▁parallel	-15311
▁dedicated	-15312
▁receiving	-15313
▁chesapeake	-15314
▁conceptual	-15315
▁confidence	-15316
dia	-15317
hub	-15318
rev	-15319
awks	-15320
hind	-15321
pend	-15322
▁rin	-15323
irond	-15324
skirt	-15325
ucket	-15326
▁dece	-15327
▁roxy	-15328
gomery	-15329
▁carlo	-15330
▁messi	-15331
▁scram	-15332
▁tiara	-15333
spanish	-15334
▁canary	-15335
▁lumber	-15336
▁portal	-15337
▁slouch	-15338
standard	-15339
▁skincare	-15340
▁creatures	-15341
▁wikimedia	-15342
▁relationships	-15343
dh	-15344
133	-15345
470	-15346
mex	-15347
▁mv	-15348
dish	-15349
xbox	-15350
▁dong	-15351
▁melt	-15352
▁owen	-15353
▁resid	-15354
osevelt	-15355
quality	-15356
▁forged	-15357
▁laguna	-15358
▁sakura	-15359
munition	-15360
▁mustache	-15361
▁watering	-15362
▁simulated	-15363
▁competitive	-15364
▁fingerprint	-15365
azzo	-15366
cock	-15367
tool	-15368
▁117	-15369
quets	-15370
▁1939	-15371
europe	-15372
source	-15373
▁lance	-15374
▁agenda	-15375
▁finland	-15376
▁granola	-15377
▁guitars	-15378
▁persons	-15379
▁shannon	-15380
▁taffeta	-15381
▁tasting	-15382
▁travels	-15383
▁austrian	-15384
▁geograph	-15385
▁orthodox	-15386
▁parmesan	-15387
▁warcraft	-15388
▁ammunition	-15389
▁fiberglass	-15390
▁timberland	-15391
▁immigration	-15392
▁wholesalers	-15393
/30	-15394
185	-15395
270	-15396
kan	-15397
pse	-15398
▁qr	-15399
24""	-15400
omas	-15401
only	-15402
▁(22	-15403
▁(40	-15404
radio	-15405
▁maxx	-15406
▁memb	-15407
▁rehe	-15408
▁españ	-15409
▁virus	-15410
charger	-15411
▁(2015)	-15412
▁aliens	-15413
▁flange	-15414
▁murals	-15415
▁rounds	-15416
▁gathered	-15417
▁sketches	-15418
▁communion	-15419
▁dg	-15420
mike	-15421
▁hig	-15422
illet	-15423
techn	-15424
[...]
